{
  "</s>": 0,
  "<unk>": 1,
  ".": 2,
  ",": 3,
  "?": 4,
  "\u2581": 5,
  "\u2581-": 6,
  "\u2581kh\u00f4ng": 7,
  "!": 8,
  "\u2581l\u00e0": 9,
  "\u2581t\u00f4i": 10,
  "\u2581c\u00f3": 11,
  "\u2581anh": 12,
  "...": 13,
  "\u2581ta": 14,
  "\u7684": 15,
  "\u2581T\u00f4i": 16,
  "\u2581c\u1ee7a": 17,
  "\u2581\u0111\u00e3": 18,
  "\u2581g\u00ec": 19,
  "\u2581s\u1ebd": 20,
  "\u2581\u0111i": 21,
  "\u4e86": 22,
  "\u2581\u0111\u00f3": 23,
  "\u2581l\u00e0m": 24,
  "\u2581m\u1ed9t": 25,
  "\u2581r\u1ed3i": 26,
  "\u2581\u0111\u01b0\u1ee3c": 27,
  "\u2581ph\u1ea3i": 28,
  "\u2581n\u00e0y": 29,
  "\u2581Anh": 30,
  "\u2581ng\u01b0\u1eddi": 31,
  "\u2581cho": 32,
  "\u2581ch\u00fang": 33,
  "\u2581bi\u1ebft": 34,
  "\u2581v\u00e0": 35,
  "\u2581\u0111\u00e2y": 36,
  "\u2581n\u00f3i": 37,
  "\u2581th\u1ec3": 38,
  "\u2581\u1edf": 39,
  "\u2581c\u00f4": 40,
  "\u2581\u6211": 41,
  "\u2581v\u1edbi": 42,
  "\u2581l\u1ea1i": 43,
  "\u2581\u4f60": 44,
  "\u2581Kh\u00f4ng": 45,
  "\u2581sao": 46,
  "\u2581con": 47,
  "\u2581ra": 48,
  "\u2581th\u1ebf": 49,
  "\u2581n\u00e0o": 50,
  "\u6211": 51,
  "\u2581\u1ea5y": 52,
  "\u2581n\u00f3": 53,
  "\u4f60": 54,
  "\u2581\u0111ang": 55,
  "\u2581em": 56,
  "\u2581\u00f4ng": 57,
  "\u2581mu\u1ed1n": 58,
  "\u2581m\u00e0": 59,
  "\u2581nh\u01b0": 60,
  "\u2581\u0111\u00e2u": 61,
  "\u2581v\u1eady": 62,
  "\u2581\u0111\u1ec3": 63,
  "\u2581c\u1eadu": 64,
  "\u2581trong": 65,
  "\u2581Ch\u00fang": 66,
  "\u2581\u0111\u1ebfn": 67,
  "\u2581c\u00e1i": 68,
  "\u3002": 69,
  "\u2581c\u1ea3": 70,
  "\u2581nh\u1eefng": 71,
  "\u2581th\u00ec": 72,
  "\u2581v\u1ec1": 73,
  "\u2581th\u1ea5y": 74,
  "\u5417": 75,
  "\u2581chuy\u1ec7n": 76,
  "\u2581\u0111\u1ea5y": 77,
  "\u2581C\u00f3": 78,
  "\u2581khi": 79,
  "\u2581c\u0169ng": 80,
  "\u2581v\u00e0o": 81,
  "\u2581ngh\u0129": 82,
  "\u2581th\u00f4i": 83,
  "\u2581b\u1ecb": 84,
  "\u2581ch\u1ec9": 85,
  "\u0301": 86,
  "\u2581C\u00f4": 87,
  "\u2581n\u1eefa": 88,
  "\u2581gi\u1edd": 89,
  "\u2581c\u00f2n": 90,
  "\u2581c\u1ea7n": 91,
  "\u2581ch\u1ee9": 92,
  "\u2581m\u00ecnh": 93,
  "\u2581vi\u1ec7c": 94,
  "\u2581h\u1ecd": 95,
  "\u2581Em": 96,
  "\u662f": 97,
  "\u5427": 98,
  "\u2581V\u00e0": 99,
  "\"": 100,
  "\u2581\u00e0": 101,
  "\u2581\"": 102,
  "\u2581r\u1ea5t": 103,
  "\u2581c\u00e1c": 104,
  "\u2581ai": 105,
  "\u4ed6": 106,
  "\u2581Nh\u01b0ng": 107,
  "\u2581\u4ed6": 108,
  "\u5728": 109,
  "\u25811": 110,
  "\u2581th\u1eadt": 111,
  "\u2581\u0111i\u1ec1u": 112,
  "\u2581l\u00ean": 113,
  "\u2581s\u1ef1": 114,
  "\u2581th\u1ee9": 115,
  "\u2581\u00d4ng": 116,
  "\u2581t\u1edbi": 117,
  "\u2581nh\u00e0": 118,
  "\u2581ch\u01b0a": 119,
  "\u2581v\u00ec": 120,
  "t": 121,
  "\u2581b\u1ea1n": 122,
  "\u55ce": 123,
  "\u2581h\u01a1n": 124,
  "\u2581C\u1eadu": 125,
  "\u2581h\u1eafn": 126,
  "i": 127,
  "\u2581t\u1eeb": 128,
  "\u2581t\u00ecm": 129,
  "n": 130,
  "\u0323": 131,
  "\u554a": 132,
  "\u2581\u0111\u1ea7u": 133,
  "\u2581nh\u01b0ng": 134,
  "\u2581ch\u1ebft": 135,
  "\u2581\u6211\u4eec": 136,
  "\u2581\u0110\u01b0\u1ee3c": 137,
  "\u2581\u01a1n": 138,
  "\u2581n\u00ean": 139,
  "\u2581N\u00f3": 140,
  "\u2581Con": 141,
  "\u2581\u4e0d": 142,
  "\u2581nghe": 143,
  "\u2581qu\u00e1": 144,
  "\u4e0d": 145,
  "\u6709": 146,
  "\u5462": 147,
  "\u2581tin": 148,
  "\u2581nhi\u1ec1u": 149,
  "\u2581Ta": 150,
  "\u4eba": 151,
  "\u2581nh\u1ea5t": 152,
  "\u548c": 153,
  "\u2581\u0110\u00f3": 154,
  "\u2581l\u1ed7i": 155,
  "\u2581m\u1ecdi": 156,
  "\u2581m\u00e0y": 157,
  "\u0300": 158,
  "\u2581N\u1ebfu": 159,
  "ng": 160,
  "\u2581bao": 161,
  "\u2581t\u1ed1t": 162,
  "\u2581th\u00edch": 163,
  "\u2581tr\u01b0\u1edbc": 164,
  "\u2581V\u1eady": 165,
  "\u2581tr\u00ean": 166,
  "\u2581c\u00f4ng": 167,
  "\u5979": 168,
  "\u53bb": 169,
  "\u2581Sao": 170,
  "\u2581n\u1ebfu": 171,
  "\u2581l\u1eafm": 172,
  "\u2581kh\u00e1c": 173,
  "\u6211\u4eec": 174,
  "\u4e0a": 175,
  "\u2581\u5979": 176,
  "\u2581hay": 177,
  "\u2581th\u00e0nh": 178,
  "\u2581y\u00eau": 179,
  "\u2581\u0111\u00fang": 180,
  "\u2581xem": 181,
  "\u2581c\u00f9ng": 182,
  "\u2581m\u1eb9": 183,
  "\u2581s\u1ed1ng": 184,
  "\u2581qua": 185,
  "\u2581g\u1eb7p": 186,
  "\u5230": 187,
  "\u2581c\u00e1ch": 188,
  "\u2581theo": 189,
  "\u2581ng\u00e0y": 190,
  "\u2581t\u00ean": 191,
  "s": 192,
  "\u2581\u0110\u00e2y": 193,
  "\u2581quan": 194,
  "\u2581m\u1edbi": 195,
  "\u2581\u00fd": 196,
  "\u2581tao": 197,
  "\u2581Xin": 198,
  "\u2581\u0110\u1eebng": 199,
  "\u2581b\u1eaft": 200,
  "\u2581h\u1ebft": 201,
  "\u2581gi\u00fap": 202,
  "\u2581ngay": 203,
  "\u2581v\u1eabn": 204,
  "\u2581\u0103n": 205,
  "\u8981": 206,
  "\u2581b\u1ea3o": 207,
  "\u2581hi\u1ec3u": 208,
  "y": 209,
  "\u2581gi\u1ebft": 210,
  "\u2581M\u1ed9t": 211,
  "\u2581sau": 212,
  "\u2581tay": 213,
  "\u2581g\u1ecdi": 214,
  "\u2581l\u1ea5y": 215,
  "\u2581C\u00e1i": 216,
  "\u2581r\u1eb1ng": 217,
  "\u2581\u0110i": 218,
  "\u2581xin": 219,
  "\u2581b\u00e0": 220,
  "'": 221,
  "\u2581H\u1ecd": 222,
  "\u2581l\u00fac": 223,
  "\u2581\u662f": 224,
  "\u5c31": 225,
  "\u2581Ph\u1ea3i": 226,
  "\u2581nh\u00e9": 227,
  "\u2581t\u1ef1": 228,
  "\u2581\u6211\u5011": 229,
  "\u2581h\u1ea3": 230,
  "\u2581m\u1ea5t": 231,
  "\u2581H\u00e3y": 232,
  "\u90fd": 233,
  "\u2581b\u1ed1": 234,
  "\u2581c\u1ea3m": 235,
  "\u2581c\u1ee9": 236,
  "\u2581ng\u00e0i": 237,
  "\u2581nh\u00ecn": 238,
  "\u2581nay": 239,
  "\u2581\u0111\u01b0a": 240,
  "\u6765": 241,
  "\u2581ch\u00e1u": 242,
  "\u2581nh\u1eadn": 243,
  "\u2581xu\u1ed1ng": 244,
  "\u2581L\u00e0m": 245,
  "\u2581kh\u1ecfi": 246,
  "\u2581xe": 247,
  "\u2581cu\u1ed9c": 248,
  "\u2581l\u1ea7n": 249,
  "\u2581ti\u1ec1n": 250,
  "\u2581t\u1ea5t": 251,
  "u": 252,
  "\u4f1a": 253,
  "\u2581b\u1ecf": 254,
  "\u2581nh\u00e2n": 255,
  "\u2581\u0111\u1ecbnh": 256,
  "\u7684\u4eba": 257,
  "m": 258,
  "\u2581v\u1ee5": 259,
  "\u597d": 260,
  "\u2581ch\u00ednh": 261,
  "\u2581n\u0103m": 262,
  "c": 263,
  "\u2581tr\u1edf": 264,
  "-": 265,
  "\u2581g\u00e1i": 266,
  "\u2581nhau": 267,
  "\u2581b\u00e9": 268,
  "\u2581\u0110\u00fang": 269,
  "\u2581b\u1ecdn": 270,
  "\u2581Th\u1eadt": 271,
  "\u2581hai": 272,
  "\u2581do": 273,
  "\u2581ch\u00fat": 274,
  "\u2581m\u1eb7t": 275,
  "\u4ed6\u4eec": 276,
  "\u2581ch\u1eafc": 277,
  "\u2581\u0111\u01b0\u1eddng": 278,
  "\u2581t\u1ea1i": 279,
  "\u2581lu\u00f4n": 280,
  "\u2581c\u01a1": 281,
  "\u5927": 282,
  "\u2581...": 283,
  "\u2581\u01a1i": 284,
  "\u2581to\u00e0n": 285,
  "\u2581V\u00e2ng": 286,
  "\u4e00": 287,
  "\u2581l\u1eddi": 288,
  "\u2581t\u1eebng": 289,
  "\u2581gia": 290,
  "\u2581Ch\u1ec9": 291,
  "\u8bf4": 292,
  "\u2581ngo\u00e0i": 293,
  "\u0438": 294,
  "\u2581s\u00e1t": 295,
  "\u2581\u0111\u1ed9ng": 296,
  "\u2581\u8fd9": 297,
  "\u91cc": 298,
  "\u2581s\u1ed1": 299,
  "\u2581t\u1edb": 300,
  "\u2581nhi\u00ean": 301,
  "\ue019": 302,
  "\u2581M\u1eb9": 303,
  "\u6211\u5011": 304,
  "\u2581C\u00e1c": 305,
  "\u88ab": 306,
  "\u2581h\u00e3y": 307,
  "\u5148\u751f": 308,
  "\u0309": 309,
  "\u2581\u0438": 310,
  "\u2581n\u01a1i": 311,
  "\u2581\u90a3": 312,
  "\u2581ng\u01b0\u01a1i": 313,
  "\u2581M\u00e0y": 314,
  "\u4ec0\u4e48": 315,
  "\u2581\u662f\u7684": 316,
  "\u2581Ch\u00e0o": 317,
  "\u2581\u4ed6\u4eec": 318,
  "\u90a3": 319,
  "\u2581h\u1ecdc": 320,
  "\u2581H\u1eafn": 321,
  "\u2581k\u1ebb": 322,
  "\u2581h\u00e0ng": 323,
  "\u2581s\u0129": 324,
  "\u2581Ch\u00faa": 325,
  "\u2581h\u1ecfi": 326,
  "\u2581\u0110\u1ec3": 327,
  "\u2581\u4f46": 328,
  "\u2581ch\u1ed7": 329,
  "\u65af": 330,
  "\u2581N\u00e0y": 331,
  "\u2581th\u1eddi": 332,
  "\u2581\u597d\u5427": 333,
  "\u4f60\u7684": 334,
  "\u2581ph\u00f2ng": 335,
  "\u2581x\u1ea3y": 336,
  "\u2581l\u00fd": 337,
  "\u2581chi\u1ebfn": 338,
  "\u5f97": 339,
  "\u80fd": 340,
  "\u505a": 341,
  "\u2581v\u1ecb": 342,
  "\u2581trai": 343,
  "\u2581th\u1eb1ng": 344,
  "\u2581\u0111\u1ec1u": 345,
  "\u2581?": 346,
  "\u5b83": 347,
  "\u2581\u597d": 348,
  "\u2581\u5728": 349,
  "\u2581t\u00e2m": 350,
  "\u2581l\u1ebd": 351,
  "\u2581nh\u1edb": 352,
  "\u2581quay": 353,
  "\u2581kia": 354,
  "\u2581vui": 355,
  "\u2581C\u00f2n": 356,
  ":": 357,
  "\u2581ch\u01a1i": 358,
  "\u2581\u0111\u1ed3": 359,
  "\u2581b\u00ean": 360,
  "\u2581Th\u1ebf": 361,
  "\u2581b\u1eb1ng": 362,
  "\u2581\u1ed5n": 363,
  "\u25812": 364,
  "\u2581b\u1ea5t": 365,
  ")": 366,
  "\u2581m\u00e1y": 367,
  "\u60f3": 368,
  "\u2581th\u1ef1c": 369,
  "\u2581tr\u1ea3": 370,
  "\u2581\u0111\u00e1nh": 371,
  "\u2581\u0111\u1ec1": 372,
  "\u8fd9": 373,
  "\u2581t\u00ecnh": 374,
  "\u2581ti\u1ebfp": 375,
  "\u2581Tao": 376,
  "\u2581sinh": 377,
  "\u2581n\u01b0\u1edbc": 378,
  "\u2581\u0111\u1eebng": 379,
  "\u628a": 380,
  "\u00b7": 381,
  "\u2581m\u1ea5y": 382,
  "\u4e5f": 383,
  "\u2581th\u01b0a": 384,
  "\u2581b\u1ed9": 385,
  "\u2581Ng\u01b0\u1eddi": 386,
  "\u2581\u0111\u1ed3ng": 387,
  "\u2581v\u00e0i": 388,
  "\u2581c\u1ed1": 389,
  "\u4e00\u4e2a": 390,
  "\u2581tr\u1ecdng": 391,
  "\u2581h\u00e0nh": 392,
  "\u2581c\u1ee9u": 393,
  "\u2581gian": 394,
  "\u2581T\u1ea1i": 395,
  "\u2581\u0111\u1eb9p": 396,
  "\u2581T\u1ea5t": 397,
  "\u2581ch\u1eb3ng": 398,
  "\u2581gi\u1edbi": 399,
  "\u2581B\u1ed1": 400,
  "\u2581lo": 401,
  "\u2581V\u00ec": 402,
  "\u2581\u6211\u662f": 403,
  "\u7528": 404,
  "\u2581v\u1eeba": 405,
  "\u5f88": 406,
  "\u2581I": 407,
  "\u2581t\u01b0\u1edfng": 408,
  "\u81ea\u5df1": 409,
  "\u2581T\u1edb": 410,
  "\u2581t\u1ed1i": 411,
  "\u8d70": 412,
  "\u2581gi\u1ed1ng": 413,
  "\u2581Gi\u1edd": 414,
  "\u6703": 415,
  "\u53ef\u4ee5": 416,
  "\u4e0b": 417,
  "\u2581s\u1ee3": 418,
  "\u2581\u1eea": 419,
  "\u2581\u6211\u8981": 420,
  "\u2581c\u1ea3nh": 421,
  "\u2581gi\u1eef": 422,
  "\u2581tuy\u1ec7t": 423,
  "\u2581vi\u00ean": 424,
  "\u2581b\u00e1o": 425,
  "\u2581cha": 426,
  "\u2581ch\u00fa": 427,
  "\u6211\u7684": 428,
  "\u2581\u4f60\u4eec": 429,
  "\u4e2d": 430,
  "\u2581c\u00e2u": 431,
  "\u5730": 432,
  "\u2581ch\u1ecb": 433,
  "\u8aaa": 434,
  "\u2581Cho": 435,
  "\u2581Ai": 436,
  "\u2581k\u1ebft": 437,
  "\u2581v\u00f4": 438,
  "\u770b": 439,
  "\u2581\u8fd9\u662f": 440,
  "\u8fc7": 441,
  "\u2581l\u1edbn": 442,
  "\u2581Khi": 443,
  "\u6253": 444,
  "\u4f86": 445,
  "\u2581hi\u1ec7n": 446,
  "\u2581v\u1ebb": 447,
  "\u8fd9\u4e2a": 448,
  "\u2581Chuy\u1ec7n": 449,
  "\u2581Nghe": 450,
  "\u2581\u0111\u00e1ng": 451,
  "\u2581\u54e6": 452,
  "\u2581h\u00ecnh": 453,
  "\u2581Nh\u1eefng": 454,
  "\u2581L\u00e0": 455,
  "\u2581M\u1ecdi": 456,
  "\u2581gi\u1ea3i": 457,
  "\u2581l\u00e2u": 458,
  "\u2581th\u01b0\u01a1ng": 459,
  "\u2581s\u00e1ng": 460,
  "\u2581\u6211\u60f3": 461,
  "\u2581th\u01b0\u1eddng": 462,
  "\u2581\u563f": 463,
  "\u2581bi\u1ec7t": 464,
  "\u70b9": 465,
  "\u4e0d\u662f": 466,
  "\u5c0f": 467,
  "\u4f60\u4eec": 468,
  "\u2581C\u1ea3m": 469,
  "\u2581c\u1eeda": 470,
  "\u2581tra": 471,
  "\u591a": 472,
  "\u2581th\u00f4ng": 473,
  "\u2581\u1ea1": 474,
  "\u2581Th\u00f4i": 475,
  "\u6ca1\u6709": 476,
  "\u2581ng\u1ee7": 477,
  "\ue4c7": 478,
  "\u2581\u6709": 479,
  "\u51fa": 480,
  "\u2581\u0111\u1ee7": 481,
  "\u2581b\u00e2y": 482,
  "\u2581nh\u1ecf": 483,
  "\u2581\u00d4i": 484,
  "\u2581nh\u1ec9": 485,
  "\u2581x\u00e1c": 486,
  "\u2581\u5feb": 487,
  "\u4ed6\u5011": 488,
  "\u2581\u266a": 489,
  "\ue5ec": 490,
  "\u2581Ch\u00e1u": 491,
  "\u2581ti\u1ebfng": 492,
  "\u2581C": 493,
  "a": 494,
  "\u2581v\u1ea5n": 495,
  "\u7279": 496,
  "\u2581nhanh": 497,
  "\u2581h\u1ee3p": 498,
  "\u2581an": 499,
  "\u2581mang": 500,
  "\u2581(": 501,
  "\u2581\u0111\u1eddi": 502,
  "\u2581bay": 503,
  "\u2581c\u1ea7u": 504,
  "\u2581\u4ec0\u4e48": 505,
  "\u2581d\u00f9ng": 506,
  "\u2581N\u00f3i": 507,
  "\u5b50": 508,
  "\u2581\u0111\u1ed5i": 509,
  "\u2581\u4f46\u662f": 510,
  "\u2581th\u00e2n": 511,
  "\u2581b\u1ea3n": 512,
  "\u2581ti\u00ean": 513,
  "\u2581tr\u1ebb": 514,
  "\u2581thay": 515,
  "\u2581\u6211\u77e5\u9053": 516,
  "\u2581ph\u1ee5": 517,
  "\u2581ph\u00e1t": 518,
  "\u65f6": 519,
  "\u2581b\u1eafn": 520,
  "\u2581to": 521,
  "\u2581\u0111\u1ea1i": 522,
  "\u2581v\u1ec7": 523,
  "\u2581\u5c31": 524,
  "\u2581Ch\u1eafc": 525,
  "\u2581th\u00eam": 526,
  "\u2581r\u00f5": 527,
  "\u5c31\u662f": 528,
  "\u2581cu\u1ed1i": 529,
  "\u6b7b": 530,
  "\u2581\u4ed6\u5011": 531,
  "\u2581B\u00e0": 532,
  "\u2581\u9019": 533,
  "\u62c9": 534,
  "\u2581Nh\u00ecn": 535,
  "\u8ddf": 536,
  "\u2581\u73b0\u5728": 537,
  "\u2581\u0111\u1ee9a": 538,
  "\u2581b\u00ecnh": 539,
  "\u2581B\u1ecdn": 540,
  "\u2581v\u1ecdng": 541,
  "\u2581ch\u00e0o": 542,
  "\u2581\u0111i\u1ec7n": 543,
  "\u2581\u4e0d\u8981": 544,
  "\u2581\u00dd": 545,
  "\u4e2a": 546,
  "\u740c": 547,
  "\u2581chi\u1ebfc": 548,
  "\u2581\u0111\u1ed9i": 549,
  "\u2581h\u1ed9i": 550,
  "\u524d": 551,
  "\u2581ko": 552,
  "\u5fb7": 553,
  "\u2581ngh\u0129a": 554,
  "\ue4ce": 555,
  "\u2581t\u00ednh": 556,
  "\u2581ch\u1edd": 557,
  "\u2581ch\u1ecbu": 558,
  "\u2581Cha": 559,
  "\u2581t\u1ed9i": 560,
  "\u518d": 561,
  "\u2581s\u00fang": 562,
  "\u2581\u1ede": 563,
  "\u2581c\u1ed5": 564,
  "\u2581\u0111\u1ed1i": 565,
  "\u2581xa": 566,
  "\u2581qu\u00e2n": 567,
  "\u2581ch\u1ea1y": 568,
  "\u2581\u0111\u00eam": 569,
  "\u2581h\u00f4m": 570,
  "\u2581th\u1ea7n": 571,
  "\u2581\u0111i\u00ean": 572,
  "\u2581\u0111\u1ea5u": 573,
  "\u2581li\u00ean": 574,
  "\u2581ho\u00e0n": 575,
  "\u5bb6": 576,
  "\u6bd4": 577,
  "\u2581s\u01b0": 578,
  "\u2581qu\u00e1i": 579,
  "\u5566": 580,
  "\u2581kh\u00f3": 581,
  "\u2581\u0111\u00ecnh": 582,
  "\u5feb": 583,
  "\u2581\u597d\u7684": 584,
  "\u2581tr\u01b0\u1eddng": 585,
  "\u6ca1": 586,
  "\u5440": 587,
  "\u2581T\u1ed1t": 588,
  "\u4e00\u4e0b": 589,
  "\u9019": 590,
  "\u2581\u522b": 591,
  "\u2581\u597d\u4e86": 592,
  "p": 593,
  "\u2581gi\u00e1": 594,
  "\u7684\u4e8b": 595,
  "\u2581n\u1eef": 596,
  "\u2581R\u1ed3i": 597,
  "\u2581g\u1ea7n": 598,
  "\u2581s\u1eafp": 599,
  "\u2581quy\u1ebft": 600,
  "\u2581cao": 601,
  "\u2581!": 602,
  "\u540e": 603,
  "\u5de5\u4f5c": 604,
  "\u2581\u6240\u4ee5": 605,
  "\u2581d\u01b0\u1edbi": 606,
  "\u2581\u0111\u1ea5t": 607,
  "\u6c34": 608,
  "\u2581\u0111\u00e0n": 609,
  "\u2581\u6211\u4e0d\u77e5\u9053": 610,
  "\u2581th\u1ed1ng": 611,
  "\u2581n\u0103ng": 612,
  "\u2581ch\u1ee9ng": 613,
  "\u2581\u4e0d\u662f": 614,
  "\u2581m\u1eaft": 615,
  "\u0303": 616,
  "\u2581ki\u1ebfm": 617,
  "\u2581Ng\u00e0i": 618,
  "\u2581l\u00f2ng": 619,
  "\u5bf9": 620,
  "\u03a4": 621,
  "\u2581R\u1ea5t": 622,
  "\u624b": 623,
  "\u2581\u5bf9": 624,
  "\u25813": 625,
  "\u2581v\u1eadt": 626,
  "\u2581\u6ca1\u6709": 627,
  "\u2581ng\u1ed3i": 628,
  "\u2581ch\u1ecdn": 629,
  "\u2581you": 630,
  "\u2581b\u00e1c": 631,
  "\u2581\u1ea3nh": 632,
  "\u2581\ue707": 633,
  "\u2581ch\u1eafn": 634,
  "\u2581t\u1eed": 635,
  "\ue707": 636,
  "\u2581ph\u00fat": 637,
  "\u2581\u5982\u679c": 638,
  "\u2581u\u1ed1ng": 639,
  "\u2581ph\u00eda": 640,
  "\u2581b\u1ec7nh": 641,
  "\u77e5\u9053": 642,
  "\u2581\u662f\u554a": 643,
  "\u2581chuy\u1ec3n": 644,
  "\u2581k\u00eca": 645,
  "\u2581C\u00e1m": 646,
  "\u2581th\u01b0": 647,
  "\u2581\u4f60\u5011": 648,
  "\u53c8": 649,
  "\u56de": 650,
  "\u4ec0\u9ebc": 651,
  "\u2581xong": 652,
  ".\"": 653,
  "\u5403": 654,
  "\u2581C\u1ee9": 655,
  "3": 656,
  "\u2581d\u1ee5ng": 657,
  "\u4f60\u5011": 658,
  "\u2581th\u1ee9c": 659,
  "\u2581\u6211\u7684": 660,
  "\u2581ki\u1ec3m": 661,
  "\u2581qu\u1ea3": 662,
  "\u2581Oh": 663,
  "\u2581tr\u1eddi": 664,
  "\u7740": 665,
  "\u2581Ng\u01b0\u01a1i": 666,
  "\u2581s\u00e0ng": 667,
  "\u5fc3": 668,
  "\u2581Nh\u01b0": 669,
  "\u2581ch\u1ee7": 670,
  "\u2581m\u1eebng": 671,
  "\u2581k\u1ebf": 672,
  "\u514b": 673,
  "\u2581b\u1edfi": 674,
  "\u2581\u4f60\u662f": 675,
  "\u2581tr\u01b0\u1edfng": 676,
  "\u2581t\u1eadp": 677,
  "\u2581\u1ed2": 678,
  "\u2581tr\u00ed": 679,
  "\u2581k\u1ec3": 680,
  "\u2581\u0111i\u1ec3m": 681,
  "\u2581\u5b83": 682,
  "\u2581M\u00ecnh": 683,
  "\u2581thu\u1ed1c": 684,
  "\u8005": 685,
  "\u2581kh\u1ed1n": 686,
  "\u2581m\u1ea1nh": 687,
  "\u2581h\u01a1i": 688,
  "\u2581lo\u1ea1i": 689,
  "\u2581l\u1ef1c": 690,
  "\u2581t\u1ec7": 691,
  "\u2581d\u1ec5": 692,
  "\u53ef": 693,
  "\u2581B\u00e2y": 694,
  "\u2581bi\u1ebfn": 695,
  "\u2581tr\u00f2": 696,
  "\u9ede": 697,
  "\u2581\u0111\u1ee9ng": 698,
  "\u592a": 699,
  "\u4e8b": 700,
  "\u2581\u8c22\u8c22": 701,
  "\u2581ba": 702,
  "\u2581ph\u1ea7n": 703,
  "\u2581ch\u00e2n": 704,
  "\u2581sai": 705,
  "\u2581th\u1eed": 706,
  "\u2581\u00c0": 707,
  "\u2581n\u1ed5i": 708,
  "\u2581\u4f60\u7684": 709,
  "\u2581Nhanh": 710,
  "\u2581duy": 711,
  "\u2581kh\u00ed": 712,
  "\u2581t\u1ee5c": 713,
  "\u2581\u0111\u1ee3i": 714,
  "2": 715,
  "\u7684\u65f6\u5019": 716,
  "\u2581minh": 717,
  "\u2581k\u1ef3": 718,
  "\u2581tr\u00f4ng": 719,
  "\u4e3a": 720,
  "\u2581\u00edt": 721,
  "\u2581\u0110i\u1ec1u": 722,
  "\u2581\u4f60\u8981": 723,
  "\u4e4b": 724,
  "\ue6c8": 725,
  "\u4e00\u6837": 726,
  "\u2581ph\u00e9p": 727,
  "\u2581ti\u1ec7t": 728,
  "\u2581v\u1ee3": 729,
  "\u2581t\u00e0u": 730,
  "\u5934": 731,
  "\u2581qu\u00ean": 732,
  "\u2581s\u1eb5n": 733,
  "\u2581\u01b0": 734,
  "\u2581trung": 735,
  "\u2581Trong": 736,
  "\u2581may": 737,
  "\u2581hi\u1ec7u": 738,
  "\u2581ph\u1ed1": 739,
  "\u2581\u0111au": 740,
  "\u3001": 741,
  "\u2581v\u0169": 742,
  "\u53eb": 743,
  "\u2581G\u00ec": 744,
  "\u2581t\u00e0i": 745,
  "\u2581mua": 746,
  "\u2581di\u1ec5n": 747,
  "\u2581qu\u00fd": 748,
  "\u90a3\u4e9b": 749,
  "\u5929": 750,
  "\u2581ph\u00e1": 751,
  "\u2581ch\u00f3": 752,
  "\u4ece": 753,
  "\u5229": 754,
  "\u2581g\u00e3": 755,
  "\u2581\u0110\u00e3": 756,
  "\u73b0\u5728": 757,
  "\u2581nhi\u00eau": 758,
  "\u7684\u8bdd": 759,
  "\u4ed6\u7684": 760,
  "\u2581ph\u1ee5c": 761,
  "\u2581h\u1ea1": 762,
  "\u2581b\u00e0i": 763,
  "\u8fd8": 764,
  "\u2581tr\u00e1i": 765,
  "\u2581tu\u1ea7n": 766,
  "\u2581mai": 767,
  "\u2581quy\u1ec1n": 768,
  "\u2581\u0110\u01b0a": 769,
  "\u2581d\u1eabn": 770,
  "\u2581hi\u1ec3m": 771,
  "\u2581s\u1ee9c": 772,
  "\u2581\u6211\u4f1a": 773,
  "\u2581\u0110\u1ea1i": 774,
  "o": 775,
  "\u7ed9\u6211": 776,
  "\u2581kinh": 777,
  "\u2581{\\": 778,
  "\u2581y\u00ean": 779,
  "\u2581kh\u00e1ch": 780,
  "\u2581\u4f46\u6211": 781,
  "\u2581m\u1edf": 782,
  "\u2581\u62b1\u6b49": 783,
  "\u2581Ch\u00fa": 784,
  "\u2581tranh": 785,
  "\u2581\u7b49\u7b49": 786,
  "\u62ff": 787,
  "\u2581th\u1ee7": 788,
  "\u2581\u8981": 789,
  "\u2581\u55ef": 790,
  "\u2581Ch\u1ecb": 791,
  "\u6700": 792,
  "\u2581th\u00fac": 793,
  "\u2581th\u00fa": 794,
  "\u6c92\u6709": 795,
  "\u2581khi\u1ebfn": 796,
  "\u2581T\u00ean": 797,
  "\u2581th\u1eafng": 798,
  "\u2581d\u00e2n": 799,
  "\u90a3\u4e2a": 800,
  "\u2581tho\u1ea1i": 801,
  "\u2581\u5982\u679c\u4f60": 802,
  "\u2581\u628a": 803,
  "\u624d": 804,
  "\u2581x\u1ea5u": 805,
  "\u2581h\u1ec7": 806,
  "\u2581l\u1ea1c": 807,
  "\u2581a": 808,
  "\u771f": 809,
  "\u2581t\u1ea1o": 810,
  "\u2581tu\u1ed5i": 811,
  "\u2581bu\u1ed5i": 812,
  "\u2581m\u1ea1ng": 813,
  "\u2581s\u00e1ch": 814,
  "\u2581\u0111\u01a1n": 815,
  "\u2581b\u00e0n": 816,
  "\u800c": 817,
  "\ue145": 818,
  "\u9ad8": 819,
  "\u2581\u00e1o": 820,
  "\u2581\u0111\u1eb7t": 821,
  "\u2581\u4f60\u77e5\u9053": 822,
  "\u5f00": 823,
  "\u5e74": 824,
  "\u76fe": 825,
  "\u5df2\u7ecf": 826,
  "\u2581t\u01b0\u1ee3ng": 827,
  "\u4e4b\u524d": 828,
  "\u2581\u0111\u00f4": 829,
  "\u8f66": 830,
  "\u2581T": 831,
  "\u2581\u90a3\u662f": 832,
  "\u751f": 833,
  "\u2581the": 834,
  "\u4e0d\u80fd": 835,
  "\u522b": 836,
  "\u2581\u8fd8\u6709": 837,
  "\u9019\u500b": 838,
  "\u2581ti\u00eau": 839,
  "\u4f4f": 840,
  "\u2581v\u1eddi": 841,
  "\u9700\u8981": 842,
  "re": 843,
  "\u50cf": 844,
  "\u25815": 845,
  "\u2581ho\u1eb7c": 846,
  "\u2581t\u01b0": 847,
  "\u5361": 848,
  "\u2581ph\u1ea1m": 849,
  "\u4e86\u5417": 850,
  "\u6216": 851,
  "\u8fd9\u6837": 852,
  "\u904e": 853,
  "\u51fa\u53bb": 854,
  "\u2581c\u00e1": 855,
  "\u8fd9\u4e9b": 856,
  "\u94b1": 857,
  "\u2581lu\u1eadt": 858,
  "\u4e0d\u8981": 859,
  "\u2581ch\u00ed": 860,
  "\u2581tr\u00ecnh": 861,
  "\u2581m\u1eb7c": 862,
  "\u2581h\u00f4n": 863,
  "\u2581\u4e3a\u4ec0\u4e48": 864,
  "\u2581th\u00e1ng": 865,
  "\u2581l\u1ec7nh": 866,
  "\u2581m\u00e1u": 867,
  "\u7ed9": 868,
  "\u59b3": 869,
  "\u6b7b\u4e86": 870,
  "\u2581ho\u1ea1ch": 871,
  "\u2581\u0111\u1ed9": 872,
  "\u2581\u4f60\u597d": 873,
  "\u5206": 874,
  "\u2581\u9019\u662f": 875,
  "\u2581Hay": 876,
  "\u2581tho\u00e1t": 877,
  "\u2581ch\u00e0ng": 878,
  "\u66f4": 879,
  "\u897f": 880,
  "\u2581c\u00e2y": 881,
  "\u2581danh": 882,
  "\u2581d\u00f9": 883,
  "\u6c92": 884,
  "\u2581m\u1eadt": 885,
  "\u627e": 886,
  "\u2581b\u00e1n": 887,
  "\u5148": 888,
  "\u2581t\u0129nh": 889,
  "\u8d77": 890,
  "\u627e\u5230": 891,
  "\u2581\u0111\u1eb7c": 892,
  "\u2581Yeah": 893,
  "\u2581S\u1ebd": 894,
  "\u2581nhi\u1ec7m": 895,
  "\u2581x\u1eed": 896,
  "\u2581\u7136\u540e": 897,
  "\u4e00\u500b": 898,
  "\u2581d\u1ed1i": 899,
  "\u2581ti\u1ebfn": 900,
  "\u2581xu\u1ea5t": 901,
  "\u60a8": 902,
  "\u2581th\u00ea": 903,
  "\u2581Ch\u00ednh": 904,
  "\u2581tinh": 905,
  "\u2581Th\u01b0a": 906,
  "\u2581khu": 907,
  "\u2581\u4f60\u60f3": 908,
  "\u6210": 909,
  "\u2581d\u1ef1": 910,
  "\u65e0": 911,
  "\u3113": 912,
  "\u2581h\u1ee9a": 913,
  "\u2581gi\u1ea3": 914,
  "\u2581\u0111\u00f4i": 915,
  "\u2581\u5662": 916,
  "\u90fd\u662f": 917,
  "\u2581g\u00e2y": 918,
  "\u6240": 919,
  "\u2581Hai": 920,
  "\u2581c\u1ea5p": 921,
  "\u2581\u5bf9\u4e0d\u8d77": 922,
  "\u2581nh\u00f3c": 923,
  "\u258110": 924,
  "\u8001": 925,
  "\u2581\u5c31\u662f": 926,
  "\u2581vi\u1ebft": 927,
  "\u2581ch\u00faa": 928,
  "\u2581\u0111o\u00e1n": 929,
  "\u2581ma": 930,
  "\u2581\u5f88\u597d": 931,
  "\u2581ng\u1ed1c": 932,
  "\u2581m\u1ed7i": 933,
  "\ue5e6": 934,
  "\u2581\u0111\u1ecdc": 935,
  "\u5f00\u59cb": 936,
  "\u2581Ch\u1ebft": 937,
  "\u56de\u6765": 938,
  "\u2581\u6211\u5728": 939,
  "\u2581Sau": 940,
  "\u653e": 941,
  "\u2581ngon": 942,
  "\u2581\u8bf7": 943,
  "\u79bb\u5f00": 944,
  "\u8fd8\u662f": 945,
  "\u2581ngu": 946,
  "\u6765\u4e86": 947,
  "\u683c": 948,
  "\u2581gi\u1ecfi": 949,
  "\u2581s\u1edbm": 950,
  "\u2581c\u00e1nh": 951,
  "\u2581b\u0103ng": 952,
  "\u2581h\u1ea1i": 953,
  "\u2581kh\u00e1": 954,
  "\u2581b\u00f3ng": 955,
  "\u2581t\u1ea5n": 956,
  "\u5b69\u5b50": 957,
  "\u9a6c": 958,
  "\u2581Tuy\u1ec7t": 959,
  "\u2581d\u1eady": 960,
  "\u95e8": 961,
  "\u2581coi": 962,
  "\u2581m\u01a1": 963,
  "\u2581\u55e8": 964,
  "\u2581\u5c0d": 965,
  "\u8def": 966,
  "\u2581ngh\u1ec9": 967,
  "\u74b6": 968,
  "\u2581A": 969,
  "\u5c3c": 970,
  "\u2581\u0111\u00ea": 971,
  "\u2581h\u1ed9": 972,
  "\u2581\u53bb": 973,
  "\u2581thi\u1ebft": 974,
  "\u2581r\u1eddi": 975,
  "\u2581Trung": 976,
  "\u561b": 977,
  "\u2581\u0110\u1ebfn": 978,
  "cH": 979,
  "\u2581th\u1eadn": 980,
  "\u2581c\u0103n": 981,
  "\u2581gi\u00e0": 982,
  "\u2581M\u1ef9": 983,
  "\u2581\u0111\u00e1": 984,
  "\u2581tham": 985,
  "\u2581h\u01b0\u1edbng": 986,
  "\u529b": 987,
  "\u2581l\u1eadp": 988,
  "\u2581c\u01b0\u1eddi": 989,
  "\u2581nguy": 990,
  "\u91cd": 991,
  "\u52a0": 992,
  "\u2581ph\u1ea3n": 993,
  "\u2581\u0111\u00f9a": 994,
  "\u2581C\u0169ng": 995,
  "\u2581l\u1ea1": 996,
  "\u2581s\u1eed": 997,
  "\u706b": 998,
  "\u2581tr\u1ed1n": 999,
  "\u2581\u0111\u1ecba": 1000,
  "\u2581Ch\u1edd": 1001,
  "\u2581h\u1ec1": 1002,
  "\u771f\u7684": 1003,
  "\u2581tr\u1ecb": 1004,
  "\u2581r\u1ed1i": 1005,
  "\u5c14": 1006,
  "\u2581li\u1ec7u": 1007,
  "\u540d": 1008,
  "\u53f7": 1009,
  "\u2581s\u1ebfp": 1010,
  "\u5e26": 1011,
  "\u2581\u800c\u4e14": 1012,
  "\u2581thu\u1eadt": 1013,
  "\u2581t\u00e1c": 1014,
  "\u5012": 1015,
  "\u4e09": 1016,
  "\u2581B\u1ea1n": 1017,
  "\u2581gi\u1eefa": 1018,
  "\u4e00\u8d77": 1019,
  "\u2581T\u1eeb": 1020,
  "\u7684\u5730\u65b9": 1021,
  "\u2581v\u00f2ng": 1022,
  "\u7842": 1023,
  "\u2581m\u00f4": 1024,
  "\u884c": 1025,
  "\u5f53": 1026,
  "\u2581\u5c0f": 1027,
  "\u8457": 1028,
  "\u51fa\u6765": 1029,
  "\u2581t\u00f9": 1030,
  "\u4e00\u4e9b": 1031,
  "\u2581B\u1edfi": 1032,
  "\u2581ki\u1ebfp": 1033,
  "\u4eec": 1034,
  "\u2581n\u1eb1m": 1035,
  "\u2581d\u1eebng": 1036,
  "\u2581Ch\u00fac": 1037,
  "\u53d1": 1038,
  "\u2581b\u00e1nh": 1039,
  "\u2581vi\u1ec7n": 1040,
  "\u2581giao": 1041,
  "\u2581t\u1ebf": 1042,
  "\u2581ph\u00e1p": 1043,
  "\u2581\u5148\u751f": 1044,
  "\u2581L\u1ea1i": 1045,
  "\u2581\u7238\u7238": 1046,
  "\u6027": 1047,
  "\u2581\u59b3": 1048,
  "\u2581h\u1ea1nh": 1049,
  "\u5e38": 1050,
  "\u2581r\u01b0\u1ee3u": 1051,
  "\u2581h\u1ed3": 1052,
  "\u2581\u53ea\u662f": 1053,
  "\u2581\u90fd": 1054,
  "\u6b63": 1055,
  "\u2581\u8fd9\u4e2a": 1056,
  "\u2581phim": 1057,
  "\u670b\u53cb": 1058,
  "\u2581\u4f60\u5728": 1059,
  "\u53ea\u662f": 1060,
  "\u2581c\u00e0ng": 1061,
  "\u5c06": 1062,
  "\u2581\u6c92\u6709": 1063,
  "\u2581\u4f60\u53ef\u4ee5": 1064,
  "\u2581c\u00e1o": 1065,
  "h\u1eb3ng": 1066,
  "\u2581n\u1ea1n": 1067,
  "\u56de\u5bb6": 1068,
  "\u30fb": 1069,
  "\u2581chu\u1ea9n": 1070,
  "d": 1071,
  "\u2581D\u00f9": 1072,
  "\u4e00\u6b21": 1073,
  "\u82b1": 1074,
  "\u2581\u770b": 1075,
  "\u2581gi\u00e1c": 1076,
  "\u2581l\u01b0\u1ee3ng": 1077,
  "\u2581b\u01b0\u1edbc": 1078,
  "\u5e72": 1079,
  "\u8dd1": 1080,
  "\u4e0d\u4f1a": 1081,
  "\u2581nh\u1ea3y": 1082,
  "\u2581nghi\u1ec7p": 1083,
  "\u9ed1": 1084,
  "\u2581d\u1ea5u": 1085,
  "C": 1086,
  "\u2581hy": 1087,
  "\u2581tim": 1088,
  "\u2581#": 1089,
  "1": 1090,
  "\u7ed9\u4f60": 1091,
  "\u2581m\u1eafn": 1092,
  "\u963f": 1093,
  "\u2581K": 1094,
  "\u53ef\u80fd": 1095,
  "\u2581\u4ec0\u9ebc": 1096,
  "\u2581\u800c": 1097,
  "\u73a9": 1098,
  "\u2581\u771f\u7684": 1099,
  "\u2581V\u1edbi": 1100,
  "\u8ba9\u6211": 1101,
  "\u2581ho\u00e0ng": 1102,
  "\ue5ee": 1103,
  "\u8fea": 1104,
  "b": 1105,
  "\u5728\u8fd9\u91cc": 1106,
  "\u2581t\u1ee9c": 1107,
  "\u6709\u4eba": 1108,
  "\u65b0": 1109,
  "\u88e1": 1110,
  "\u2581b\u00ed": 1111,
  "\u2581m\u1eddi": 1112,
  "\u2581John": 1113,
  "\u7231": 1114,
  "\u597d\u4e86": 1115,
  "\u4e48": 1116,
  "\u8fd9\u91cc": 1117,
  "\u2581mong": 1118,
  "\u2581\u0111\u00e1m": 1119,
  "\u53ea": 1120,
  "\u723e": 1121,
  "\u2581trang": 1122,
  "\u2581quanh": 1123,
  "\u2581\u5929\u554a": 1124,
  "\u5f88\u597d": 1125,
  "\u4f46": 1126,
  "h": 1127,
  "\u2581r\u00f4": 1128,
  "\u5411": 1129,
  "\u25814": 1130,
  "\u65f6\u95f4": 1131,
  "\u2581l\u0169": 1132,
  "\u2581\u0111\u1ed9c": 1133,
  "\u795e": 1134,
  "g": 1135,
  "\ue14c": 1136,
  "\u5df2": 1137,
  "\u2581m\u00f3n": 1138,
  "\u2581N\u00e0o": 1139,
  "\u8fd9\u4e48": 1140,
  "\u600e\u4e48": 1141,
  "\u957f": 1142,
  "\u2581\u6211\u53ef\u4ee5": 1143,
  "\u5c0d": 1144,
  "\u2581Th\u1eb1ng": 1145,
  "\u2581ti\u1ebfc": 1146,
  "\u500b": 1147,
  "\u7a66": 1148,
  "\u2581kh\u1ee7ng": 1149,
  "\u2581\u6ca1\u9519": 1150,
  "\u5728\u54ea": 1151,
  "\u2581kh\u1ecfe": 1152,
  "\u8eab": 1153,
  "\u7b49": 1154,
  "\u5982\u4f55": 1155,
  "\u2581\u00e1n": 1156,
  "\u2581Ngay": 1157,
  "\u2581\u6211\u5c31": 1158,
  "\u4e00\u70b9": 1159,
  "\u975e\u5e38": 1160,
  "\u2581\u0111\u1ea1n": 1161,
  "\u2581ki\u1ec3u": 1162,
  "\u770b\u5230": 1163,
  "A": 1164,
  "\u5168": 1165,
  "\u5b89": 1166,
  "\u5854": 1167,
  "\u2581it": 1168,
  "\u2581\u0111\u1ea7y": 1169,
  "\u2581S": 1170,
  "\u2581th\u1ea5t": 1171,
  "\u2581\u6211\u4e5f": 1172,
  "\u2581\u0111\u1ee1": 1173,
  "\u2581ng\u1edd": 1174,
  "\u2581L\u00fac": 1175,
  "\u91d1": 1176,
  "\u2581\u548c": 1177,
  "\u770b\u770b": 1178,
  "\u4e3b": 1179,
  "\u4ee5": 1180,
  "\u2581C\u1ea3": 1181,
  "\u2581\u0111\u00f3ng": 1182,
  "\u2581H\u00f4m": 1183,
  "\u2581tr\u1eadn": 1184,
  "\u2581n\u1ed5": 1185,
  "\".": 1186,
  "\u672c": 1187,
  "\u4e8e": 1188,
  "\u2581Ra": 1189,
  "\u2581\u771f": 1190,
  "e": 1191,
  "\u8fdb": 1192,
  "\u2581ri\u00eang": 1193,
  "\u2581thu\u1ed9c": 1194,
  "\u2581su\u1ed1t": 1195,
  "\u2581thanh": 1196,
  "\u2581\u4e0d\u8fc7": 1197,
  "\u2581\u60a8": 1198,
  "\u2581\u6211\u6703": 1199,
  "\u2581D\u1eebng": 1200,
  "\u5c0f\u59d0": 1201,
  "\u2581th\u1eb3ng": 1202,
  "\u9762": 1203,
  "\u2581b\u1ee9c": 1204,
  "\u56de\u53bb": 1205,
  "\u8fc7\u6765": 1206,
  "\u2581B": 1207,
  "\u2581m\u00e3i": 1208,
  "\u2581gh\u00e9t": 1209,
  "\u2581l\u00e1i": 1210,
  "\u7684\u4e1c\u897f": 1211,
  "\u9053": 1212,
  "\u2581g\u1eedi": 1213,
  "\u2581\u518d": 1214,
  "\u8ba9": 1215,
  "\u2581\u56e0\u4e3a": 1216,
  "\u5982\u6b64": 1217,
  "\u5916": 1218,
  "\u2581Ch\u01b0a": 1219,
  "\u2581kh\u1ea3": 1220,
  "\u4e00\u6a23": 1221,
  "\u2581m\u1ee5c": 1222,
  "\u2581suy": 1223,
  "\u2581\u6765": 1224,
  "\u2581B\u1ecf": 1225,
  "\u2581ho\u1ea1t": 1226,
  "\u2581d\u1ea1y": 1227,
  "\u2581\u5feb\u70b9": 1228,
  "\u2581c": 1229,
  "\u2581Coi": 1230,
  "\u2581\u4ed6\u662f": 1231,
  "\u4eca\u5929": 1232,
  "\u2581Ba": 1233,
  "\u4fe1": 1234,
  "\u2581bu\u1ed3n": 1235,
  "\u2581ch\u1ee9c": 1236,
  "\u2581v\u0103n": 1237,
  "\u544a\u8bc9\u6211": 1238,
  "\u2581\u5f53\u7136": 1239,
  "\u9152": 1240,
  "\u2581\u4e00\u4e2a": 1241,
  "\u6d3e": 1242,
  "\u2581m\u00e0u": 1243,
  "\u2581da": 1244,
  "\u2581d\u00e0nh": 1245,
  "\u2581di": 1246,
  "\u9019\u6a23": 1247,
  "\u2581nghi": 1248,
  "\u2581\u5225": 1249,
  "\u2581d\u00e0i": 1250,
  "\u65e5": 1251,
  "\u2581th\u00f9": 1252,
  "\u2581\u0111\u01b0\u01a1": 1253,
  "\u5f9e": 1254,
  "\u5f27": 1255,
  "\u25816": 1256,
  "\u2581g\u1eafng": 1257,
  "\u5df2\u7d93": 1258,
  "\u2581l\u1ecbch": 1259,
  "\u662f\u8c01": 1260,
  "\u2581l\u1eeda": 1261,
  "\u2581\u0111en": 1262,
  "\u641e": 1263,
  "\u2581V\u00e0o": 1264,
  "\u8b66\u5bdf": 1265,
  "\u5c71": 1266,
  "\u6cd5": 1267,
  "\u2581b\u1eefa": 1268,
  "\u2581nh\u1eadp": 1269,
  "\u2581\u53ef\u4ee5": 1270,
  "\u2581l\u1eafng": 1271,
  "\u8239": 1272,
  "\u2581\u0111u\u1ed5i": 1273,
  "\u2581\u90a3\u4f60": 1274,
  "\u2581bi\u1ec3n": 1275,
  "\u5973\u4eba": 1276,
  "\u2581t": 1277,
  "\ue4cf": 1278,
  "\u2581kh\u00f3a": 1279,
  "\u5149": 1280,
  "\u2581s\u01a1": 1281,
  "\u7c73": 1282,
  "\u8bf7": 1283,
  "\u4e86\u55ce": 1284,
  "\u4e0e": 1285,
  "\u4f5c": 1286,
  "\u6211\u662f": 1287,
  "\u2581tri\u1ec7u": 1288,
  "\u2581c\u0169": 1289,
  "\u89c1": 1290,
  "\u63a5": 1291,
  "\u7684\u662f": 1292,
  "\u5230\u4e86": 1293,
  "\u8c01": 1294,
  "\u7f8e": 1295,
  "\u2581gi\u00e1o": 1296,
  "\u6211\u8981": 1297,
  "\u2581nghi\u1ec7m": 1298,
  "\u2581B\u00e1c": 1299,
  "\u63d0": 1300,
  "\u2581\u4e00": 1301,
  "\u81ea": 1302,
  "\u2581D": 1303,
  "\u542c": 1304,
  "\u4e9b": 1305,
  "\u2581mau": 1306,
  "\u2581M\u1ea5y": 1307,
  "\u5f04": 1308,
  "\u2581\u90a3\u4e48": 1309,
  "\u2581h\u00e1t": 1310,
  "\u505a\u7684": 1311,
  "\u2581Th\u00ec": 1312,
  "\u2581ch\u1eebng": 1313,
  "\u2581\u0110\u1ed3": 1314,
  "\u2581tr\u00e1ch": 1315,
  "\u2581t\u00e1": 1316,
  "\u7a31": 1317,
  "\u2581N\u00ean": 1318,
  "\u8fd8\u6709": 1319,
  "\ue652": 1320,
  "\u2581t\u01b0\u01a1ng": 1321,
  "\u2581h\u1ee7y": 1322,
  "\u2581l\u00ednh": 1323,
  "\u2581n\u00e0ng": 1324,
  "\u2581qu\u1ed1c": 1325,
  "\u2581ki\u1ebfn": 1326,
  "\u5185": 1327,
  "\u2581phi\u1ec1n": 1328,
  "\u2581thuy\u1ec1n": 1329,
  "\u52a8": 1330,
  "\u2581quen": 1331,
  "\u2581Xem": 1332,
  "\u5f97\u5230": 1333,
  "\u2581ng\u0103n": 1334,
  "\u67aa": 1335,
  "\u2581h\u00f3a": 1336,
  "\u6240\u6709": 1337,
  "\u2581c\u00e2": 1338,
  "\u2581\u80fd": 1339,
  "er": 1340,
  "\u2581bi\u00ea": 1341,
  "\u2581ch\u1ed1ng": 1342,
  "\u2581k\u00e9o": 1343,
  "\u6389": 1344,
  "\u2581ly": 1345,
  "\u2581l\u1ee3i": 1346,
  "\u2581ghi": 1347,
  "\u7238\u7238": 1348,
  "\u2581th\u1ecb": 1349,
  "\u2581\u0111\u1ea3m": 1350,
  "\u8fd9\u662f": 1351,
  "\u9322": 1352,
  "\u5750": 1353,
  "\u4e00\u5207": 1354,
  "\u53ea\u6709": 1355,
  "\u2581kho\u1ea3ng": 1356,
  "\u2581ti\u1ec7c": 1357,
  "\u7a7a": 1358,
  "\u2581t\u1ee5i": 1359,
  "\u60f3\u8981": 1360,
  "\u95ee\u9898": 1361,
  "\u5e0c\u671b": 1362,
  "\u9019\u4e9b": 1363,
  "\u592b": 1364,
  "\u2581d\u00e2y": 1365,
  "\u2581d\u1ecbch": 1366,
  "\u2581\u90a3\u5c31": 1367,
  "\u5e94\u8be5": 1368,
  "\u7576": 1369,
  "\u2581ch\u1ea5t": 1370,
  "\u2581C\u00f4ng": 1371,
  "\u673a": 1372,
  "\u2581thi\u00ean": 1373,
  "\u2581\u6211\u53ea\u662f": 1374,
  "\u6c14": 1375,
  "\u2581v\u00e2": 1376,
  "\u2581Okay": 1377,
  "\u53e3": 1378,
  "\u2581h\u1ed3i": 1379,
  "\u2581tr\u1ee3": 1380,
  "\u573a": 1381,
  "\u9b3c": 1382,
  "\u2581\u4f60\u80fd": 1383,
  "\u2581L\u1ea7n": 1384,
  "\u2581r\u00e0ng": 1385,
  "\u2581nh\u1ea1c": 1386,
  "\u72d7": 1387,
  "\u2581\u0111\u1ea1o": 1388,
  "\u513f": 1389,
  "\u2581b\u1ea1i": 1390,
  "\u2581v\u00e0ng": 1391,
  "\u2581\u6211\u4e0d\u60f3": 1392,
  "\u5165": 1393,
  "\u76f8\u4fe1": 1394,
  "6": 1395,
  "\u2581c\u01b0\u1edbi": 1396,
  "\u2581Nh\u00e0": 1397,
  "\u2581binh": 1398,
  "\u2581Ng\u00e0y": 1399,
  "\u2581ban": 1400,
  "\u2581\u6765\u5427": 1401,
  "\u7ba1": 1402,
  "\u958b": 1403,
  "\u2581l\u1ea7m": 1404,
  "\u2581\u1ed5ng": 1405,
  "\u2581\u4eca\u5929": 1406,
  "\u662f\u6211": 1407,
  "\u2581ch\u1ed3ng": 1408,
  "\u2581k\u00fd": 1409,
  "\u662f\u7684": 1410,
  "\u982d": 1411,
  "\u8d70\u4e86": 1412,
  "\u2581\u73fe\u5728": 1413,
  "\u4e00\u4e2a\u4eba": 1414,
  "\u2581B\u1eaft": 1415,
  "\u2581huy": 1416,
  "\u2581tr\u00e1nh": 1417,
  "\u2581ch\u1ebf": 1418,
  "\u2581ng\u00f4i": 1419,
  "\u2581c\u01b0\u1edbp": 1420,
  "\u4e5f\u662f": 1421,
  "\u2581Tr\u00f4ng": 1422,
  "\u2581qu\u1ea7n": 1423,
  "\u2581thu": 1424,
  "\u4e00\u76f4": 1425,
  "\u70ba": 1426,
  "\u559d": 1427,
  "\u2581\u6709\u4eba": 1428,
  "\u2581You": 1429,
  "\u95ee": 1430,
  "\u662f\u4e2a": 1431,
  "T\u00f4i": 1432,
  "\u2581d\u00e1m": 1433,
  "\u2581chung": 1434,
  "\u2581can": 1435,
  "\u2581\u963f": 1436,
  "\u7403": 1437,
  "\u6d77": 1438,
  "\u90a3\u4e48": 1439,
  "\u57ce": 1440,
  "\ue4d1": 1441,
  "\u2581\u6211\u80fd": 1442,
  "\u2581Th\u1ea5y": 1443,
  "\u2581r\u01a1i": 1444,
  "\u2581\u00e2m": 1445,
  "\u2581\u6211\u6709": 1446,
  "\u7537\u4eba": 1447,
  "\u8ba9\u4f60": 1448,
  "\u773c": 1449,
  "\u4e4b\u540e": 1450,
  "\u8fbe": 1451,
  "\u5979\u7684": 1452,
  "\u6642": 1453,
  "\u516c\u53f8": 1454,
  "\u2581\u600e\u4e48\u4e86": 1455,
  "\u68ee": 1456,
  "\u66fc": 1457,
  "\u662f\u4ec0\u4e48": 1458,
  "\u2581Frank": 1459,
  "\u2581\u0111\u1ed5": 1460,
  "\u6797": 1461,
  "\u6587": 1462,
  "\u767c": 1463,
  "\u2581in": 1464,
  "\u2581Hey": 1465,
  "\u2581\u0111em": 1466,
  "\u2581n\u1eeda": 1467,
  "\u2581\u4f60\u6709": 1468,
  "\u2581chia": 1469,
  "\u2581nh\u1eafc": 1470,
  "\u4e3a\u4ec0\u4e48": 1471,
  "\u2581\u542c\u7740": 1472,
  "\u2581\u8fd9\u91cc": 1473,
  "\u2581V\u1ec1": 1474,
  "\u2581ng\u01b0\u01a1": 1475,
  "\u738b": 1476,
  "F": 1477,
  "\u2581\u662f\u6211": 1478,
  "\u2581\u0110\u1ee9ng": 1479,
  "\u2581mi\u1ec7ng": 1480,
  "\u2581\u6211\u4e0d\u662f": 1481,
  "\\": 1482,
  "\u2581nghi\u00eam": 1483,
  "\u2581\u0111\u00e2": 1484,
  "\u2581c\u1eaft": 1485,
  "\u2581c\u1eed": 1486,
  "\u2581tai": 1487,
  "\u2581Vi\u1ec7c": 1488,
  "\u2581phi": 1489,
  "\u9084": 1490,
  "\u2581ng\u1ef1a": 1491,
  "\u2581ch\u1ea5p": 1492,
  "\u2581truy\u1ec1n": 1493,
  "\u5df4": 1494,
  "\u5973": 1495,
  "\u5728\u4e00\u8d77": 1496,
  "\u597d\u5417": 1497,
  "\u8fc7\u53bb": 1498,
  "\u2581\u4f46\u4f60": 1499,
  "\u2581ngh\u1ecb": 1500,
  "\u2581\u5582": 1501,
  "\u2581B\u00ecnh": 1502,
  "\u6211\u4eec\u7684": 1503,
  "\u6709\u70b9": 1504,
  "\u2581ch\u1ea3": 1505,
  "\u5b89\u5168": 1506,
  "\u2581nguy\u00ean": 1507,
  "ing": 1508,
  "\u2581Th\u1ee9": 1509,
  "\u2581\u5982\u679c\u6211": 1510,
  "\u2581\u4ece": 1511,
  "\u2581M\u00e0": 1512,
  "\u2581c\u1ea7m": 1513,
  "\u258120": 1514,
  "\u2581th\u1ea7y": 1515,
  "B": 1516,
  "\u2581thu\u1eadn": 1517,
  "\u2581ph\u00fac": 1518,
  "\u2581l\u1ef1a": 1519,
  "\u2581\u60f3": 1520,
  "\u2581\u8c01": 1521,
  "\u2581Theo": 1522,
  "\u767d": 1523,
  "\u2581t\u00f2a": 1524,
  "\u2581\u4e5f": 1525,
  "\u2581h\u1eb9n": 1526,
  "\u2581y": 1527,
  "\u4e0d\u6703": 1528,
  "\u2581\u0110\u1ee3i": 1529,
  "\u2581c\u00e0": 1530,
  "\u8bf4\u8bdd": 1531,
  "\u2581c\u01b0": 1532,
  "\u4f86\u4e86": 1533,
  "\ue5fd": 1534,
  "\u5668": 1535,
  "\u2581tr\u1eeb": 1536,
  "\u56de\u4f86": 1537,
  "5": 1538,
  "\u8840": 1539,
  "\u2581Khoan": 1540,
  "\u2581kh\u0103n": 1541,
  "\u2581ph\u00e2n": 1542,
  "ed": 1543,
  "\u7d66\u6211": 1544,
  "\u7b35": 1545,
  "\u2581Tr\u1eddi": 1546,
  "\u2581me": 1547,
  "I": 1548,
  "\u2581lai": 1549,
  "\u2581thi": 1550,
  "\u7f57": 1551,
  "S": 1552,
  "\u8d77\u6765": 1553,
  "\u7a7f": 1554,
  "\u666e": 1555,
  "\u807d": 1556,
  "\u53d7": 1557,
  "\u2581\u90a3\u4e2a": 1558,
  "\u8bdd": 1559,
  "\u2581L": 1560,
  "\u2581t\u1ed5": 1561,
  "\u2581\u4f60\u770b": 1562,
  "\u8ba1\u5212": 1563,
  "\u2581m\u00e1i": 1564,
  "\u8ddf\u6211": 1565,
  "\u5947": 1566,
  "\u2581s\u1edf": 1567,
  "\u2581chi": 1568,
  "\u7b97": 1569,
  "\u8482": 1570,
  "\u73fe\u5728": 1571,
  "\u2581t\u00fai": 1572,
  "\ue7cf": 1573,
  "\u2581\u8c22\u8c22\u4f60": 1574,
  "\u2581n\u00f3ng": 1575,
  "\u2581so\u00e1t": 1576,
  "\u2581\u6211\u77e5\u9053\u4f60": 1577,
  "\u4e0d\u77e5\u9053": 1578,
  "\u5439": 1579,
  "\u2581S\u1ef1": 1580,
  "\u2581\u0110\u1ee9c": 1581,
  "\u2581\u6211\u4eec\u8981": 1582,
  "\u5728\u54ea\u91cc": 1583,
  "\u2581\u5c31\u50cf": 1584,
  "\u2581t\u1eadn": 1585,
  "\u4e0b\u53bb": 1586,
  "\u5144\u5f1f": 1587,
  "\u98ce": 1588,
  "\u2581T\u1ea1m": 1589,
  "\u9001": 1590,
  "\u2581thuy\u1ebft": 1591,
  "\u2581th\u00e2": 1592,
  "ll": 1593,
  "\u2581vua": 1594,
  "\u6211\u60f3": 1595,
  "\u2581\u53ea\u6709": 1596,
  "\u559c\u6b22": 1597,
  "\u6d3b": 1598,
  "\u2581T\u1ed5ng": 1599,
  "\u533b\u751f": 1600,
  "\u2581\u8fd9\u6837": 1601,
  "\u54e6": 1602,
  "\u2581r\u1eafc": 1603,
  "\u5927\u5bb6": 1604,
  "\u2581\u4f60\u4f1a": 1605,
  "\u2581m\u1ed1i": 1606,
  "\u2581\u771f\u662f": 1607,
  "\u4e16\u754c": 1608,
  "\u2581\u0111o\u00e0n": 1609,
  "\u2581\u0111\u00f4ng": 1610,
  "\u2581v\u01a1": 1611,
  "\u4e70": 1612,
  "\u2581v\u01b0\u1ee3t": 1613,
  "\u2581h\u1eb3n": 1614,
  "\u2581Qu\u1ed1c": 1615,
  "\u2581d\u00f5i": 1616,
  "\u2581\u8d70\u5427": 1617,
  "\u5e36": 1618,
  "\u6069": 1619,
  "\u800c\u5df2": 1620,
  "\u2581l\u1ea1nh": 1621,
  "\u4e0d\u4e86": 1622,
  "\u597d\u7684": 1623,
  "\u6d41": 1624,
  "\u8be5": 1625,
  "\u961f": 1626,
  "\u8df3": 1627,
  "\u54e5": 1628,
  "\u2581v\u00f9ng": 1629,
  "\u5225": 1630,
  "\u5e03": 1631,
  "\u2581C\u1ea3nh": 1632,
  "\u2581hoa": 1633,
  "\u2581gi\u00e2y": 1634,
  "\u2581\u01b0\u1edbc": 1635,
  "\u8c08": 1636,
  "\u2581linh": 1637,
  "\u2581qu\u1ef7": 1638,
  "\u7ee7\u7eed": 1639,
  "\u2581bu\u1ed9c": 1640,
  "\u60c5": 1641,
  "\u7ad9": 1642,
  "\u2581th\u1ecbt": 1643,
  "\u6211\u4f1a": 1644,
  "\u2581chuy\u1ebfn": 1645,
  "\u2581k\u00edch": 1646,
  "\u2581t\u00edch": 1647,
  "\u2581\u6211\u4e0d\u80fd": 1648,
  "\u00ea": 1649,
  "\u2581ph\u01b0\u01a1ng": 1650,
  "\u5199": 1651,
  "\u6559": 1652,
  "\u628a\u6211": 1653,
  "\u2581tr\u1ed9m": 1654,
  "\u2581\u4e0d\u884c": 1655,
  "\u2581\u6211\u4e0d": 1656,
  "\u8ddf\u4f60": 1657,
  "\u624d\u80fd": 1658,
  "\u2581v\u1ebft": 1659,
  "\u2581ph\u1ee7": 1660,
  "\u7b41": 1661,
  "#244;": 1662,
  "\u2581t\u00f3c": 1663,
  "\u2581\u6211\u5f97": 1664,
  "T": 1665,
  "\u2581ca": 1666,
  "\u7eb3": 1667,
  "\u2581\u01a1": 1668,
  "\u2581h\u00f9ng": 1669,
  "\u2581\u5927": 1670,
  "\u2581\u5c0d\u4e0d\u8d77": 1671,
  "\u2581gi\u1ea5y": 1672,
  "\u600e\u4e48\u6837": 1673,
  "\u4efb\u4f55": 1674,
  "\u2581Mu\u1ed1n": 1675,
  "\u2581ti\u1ebft": 1676,
  "\u2581\u90a3\u4e9b": 1677,
  "\u2581s\u1eeda": 1678,
  "\u2581ty": 1679,
  "\u2581l\u1eeba": 1680,
  "\u2581T\u1ed1i": 1681,
  "\u611b": 1682,
  "\u59c6": 1683,
  "\u6211\u5c31": 1684,
  "\u2581\u6216\u8005": 1685,
  "\u2581k\u00ec": 1686,
  "\u2581ngo\u1ea1i": 1687,
  "\u76ae": 1688,
  "\u53bb\u4e86": 1689,
  "\u592a\u592a": 1690,
  "\u2581y\u1ebfu": 1691,
  "\u2581\u4e0d\u77e5\u9053": 1692,
  "\u2581\u6ca1": 1693,
  "\u2581Tr\u00e1nh": 1694,
  "\u2581Th\u1ea7n": 1695,
  "\u6536": 1696,
  "\u6b66\u5668": 1697,
  "\u2581k\u1ef9": 1698,
  "\u2581nh\u1edd": 1699,
  "\u2581ch\u0103m": 1700,
  "\u7684\u4e8b\u60c5": 1701,
  "\u2581\u4f60\u5f97": 1702,
  "\u5b9a": 1703,
  "\u2581Tr\u01b0\u1edbc": 1704,
  "\u2581m\u1ee9c": 1705,
  "4": 1706,
  "\u25817": 1707,
  "\u2581l\u1ec7": 1708,
  "\u2581tha": 1709,
  "\u90a3\u6837": 1710,
  "\u51fa\u4f86": 1711,
  "\u2581B\u1ea3o": 1712,
  "\u53d6": 1713,
  "\u2581th\u1ea3": 1714,
  "\u2581\u0111\u1eb1ng": 1715,
  "\u2581t\u1ea5m": 1716,
  "\u2581t\u00edn": 1717,
  "\u2581c\u1ea1nh": 1718,
  "\u2581di\u1ec7n": 1719,
  "\u2581R\u00f5": 1720,
  "\u2581gi\u1ea3n": 1721,
  "\u2581c\u01b0ng": 1722,
  "\u2581s\u00e2u": 1723,
  "\u2581\u00edch": 1724,
  "\u610f": 1725,
  "\u54c8": 1726,
  "\u81ea\u5df1\u7684": 1727,
  "\u6ce2": 1728,
  "\u56db": 1729,
  "\u4eca\u665a": 1730,
  "\u5011": 1731,
  "\u22bf": 1732,
  "\u2581C\u1ed1": 1733,
  "\u2581s\u0103n": 1734,
  "\u7761": 1735,
  "\u2581\u8d70": 1736,
  "\u5409": 1737,
  "\u6446": 1738,
  "\u660e\u767d": 1739,
  "\u2581ph\u00ed": 1740,
  "\u2581\u62dc\u6258": 1741,
  "D": 1742,
  "\u65e0\u6cd5": 1743,
  "\u80af\u5b9a": 1744,
  "\u7b11": 1745,
  "\u2581\u53ea\u8981": 1746,
  "\u2581\u53ef": 1747,
  "\u2581\u5feb\u9ede": 1748,
  "\u2581nh\u00f3m": 1749,
  "\u662f\u4e0d\u662f": 1750,
  "nh": 1751,
  "\u7535\u8bdd": 1752,
  "\u2581bom": 1753,
  "\u4e0d\u884c": 1754,
  "\u8fdb\u53bb": 1755,
  "(": 1756,
  "\u2581L\u1ea5y": 1757,
  "\u628a\u5b83": 1758,
  "\u789e": 1759,
  "\u4e34": 1760,
  "\u2581\u7528": 1761,
  "\u7684\u8a71": 1762,
  "\u540c": 1763,
  "\u2581h\u01b0\u1edfng": 1764,
  "\u5f8c": 1765,
  "\u2581\u770b\u770b": 1766,
  "\u98de": 1767,
  "\u2581t\u1ec9nh": 1768,
  "\u2581s\u1ea3n": 1769,
  "\u2581thi\u1ebfu": 1770,
  "\u548c\u6211": 1771,
  "\u2581\u8fd8\u662f": 1772,
  "\u2581ph\u00f9": 1773,
  "\u2581gi\u1eadn": 1774,
  "en": 1775,
  "\u2581th\u1ec1": 1776,
  "\u8bb2": 1777,
  "\u99ac": 1778,
  "\u2581N": 1779,
  "\u2581\u0111\u00f3n": 1780,
  "\u516c": 1781,
  "\u6709\u4ec0\u4e48": 1782,
  "\u2581l\u00e3o": 1783,
  "\u5b66": 1784,
  "\u2581s\u1ea1ch": 1785,
  "\u96f7": 1786,
  "\u2581l": 1787,
  "\ue6d4": 1788,
  "\u2581\u7b49\u4e00\u4e0b": 1789,
  "\u2581M": 1790,
  "\u2581\u4eb2\u7231\u7684": 1791,
  "\u2581\u4f60\u4e0d\u80fd": 1792,
  "\u4e94": 1793,
  "\u628a\u4f60": 1794,
  "\u4e24": 1795,
  "\u5973\u5b69": 1796,
  "\u2581d\u1eef": 1797,
  "\u2581t\u1ed3i": 1798,
  "\u2581h\u1ecfng": 1799,
  "E": 1800,
  "\u2581Jack": 1801,
  "\u2581l\u1ed1i": 1802,
  "\u2581n\u00e8": 1803,
  "\u6765\u7684": 1804,
  "\u89c9\u5f97": 1805,
  "\u4ea4": 1806,
  "\u6b63\u5728": 1807,
  "\u6709\u4e2a": 1808,
  "\u2581cu\u1ed1n": 1809,
  "\u4f0a": 1810,
  "\u2581bi\u1ec3u": 1811,
  "\u2581\u8fd8": 1812,
  "\u2581Gi\u1ed1ng": 1813,
  "\u2581b\u1eadn": 1814,
  "\u2581x\u00fac": 1815,
  "\u5982": 1816,
  "\u51c6\u5907": 1817,
  "\u505a\u4ec0\u4e48": 1818,
  "\u2581nh\u1eadt": 1819,
  "\u2581say": 1820,
  "\u90a3\u91cc": 1821,
  "\u2581is": 1822,
  "\u2581we": 1823,
  "\u2581\u70ba\u4ec0\u9ebc": 1824,
  "\u2581khai": 1825,
  "\u2581that": 1826,
  "\u2581Bi\u1ebft": 1827,
  "\u2581Sam": 1828,
  "\u2581c\u1ea9n": 1829,
  "\u79d1": 1830,
  "\u2581l\u1ed9": 1831,
  "\u65e9": 1832,
  "\u2581T\u00ecm": 1833,
  "\u5305": 1834,
  "\u7ff4": 1835,
  "\u2581luy\u1ec7n": 1836,
  "\u2581s\u00f3c": 1837,
  "\u534a": 1838,
  "\u63a5\u53d7": 1839,
  "\u2581\u5927\u5bb6": 1840,
  "\u2581\u1ee9ng": 1841,
  "\u2581n\u1eb7ng": 1842,
  "\u3043": 1843,
  "\ue66e": 1844,
  "in": 1845,
  "\u662f\u4f60": 1846,
  "\u2581vi": 1847,
  "\u4e00\u9ede": 1848,
  "\u53d8": 1849,
  "\u5175": 1850,
  "\u2581\u7ed9\u6211": 1851,
  "\u2581l\u1eb7ng": 1852,
  "\u2581s\u00f3t": 1853,
  "\u2581\u53ef\u662f": 1854,
  "\u771f\u662f": 1855,
  "\u9084\u662f": 1856,
  "\u2581\u8fd9\u4e9b": 1857,
  "\u90a3\u500b": 1858,
  "\u7ebf": 1859,
  "\u5b8c\u5168": 1860,
  "\u5f88\u591a": 1861,
  "\u8eca": 1862,
  "\u2581h\u1ed3n": 1863,
  "\u2581n\u1ed7i": 1864,
  "\u2581t\u00ed": 1865,
  "\u2581chuy\u00ean": 1866,
  "\u4e0d\u597d": 1867,
  "\u5f80": 1868,
  "\u76f8": 1869,
  "\u2581ph\u00f3ng": 1870,
  "\u53d1\u73b0": 1871,
  "\u4e1c\u897f": 1872,
  "\u628a\u4ed6": 1873,
  "\u2581x\u00e9t": 1874,
  "\u2581\u4f60\u5c31": 1875,
  "\u6740": 1876,
  "\u7121": 1877,
  "\u2581T\u1edbi": 1878,
  "\u2581t\u0103ng": 1879,
  "\u51b3\u5b9a": 1880,
  "\u6211\u77e5\u9053": 1881,
  "\u6551": 1882,
  "\u2581Quay": 1883,
  "\u522b\u4eba": 1884,
  "\u547d": 1885,
  "\u5c31\u4f1a": 1886,
  "\u2581\u600e\u4e48": 1887,
  "\u8b93\u6211": 1888,
  "\u2581\u662f\u5417": 1889,
  "\u2581C\u1ee9u": 1890,
  "\u2581\u00e2": 1891,
  "\ue01d": 1892,
  "\u88c5": 1893,
  "\u2581l\u1ec5": 1894,
  "\u2581\u592a": 1895,
  "M": 1896,
  "\u2581m\u00e3": 1897,
  "\u2581tr\u1eafng": 1898,
  "\u544a\u8bc9\u4f60": 1899,
  "\u2581c\u00e1m": 1900,
  "\u2581th\u0103m": 1901,
  "\u4e86\u89e3": 1902,
  "\u2581\u9084\u6709": 1903,
  "\u2581\u00e1c": 1904,
  "\u7684\u6642\u5019": 1905,
  "\u5408": 1906,
  "\u2581Th\u1ef1c": 1907,
  "\u2581Ti\u1ebfn": 1908,
  "\u2581of": 1909,
  "\u2581Mau": 1910,
  "\u6258": 1911,
  "ch": 1912,
  "\u4e07": 1913,
  "\u7269": 1914,
  "\u4e8b\u60c5": 1915,
  "\u6708": 1916,
  "\u2581gi\u1ea5u": 1917,
  "\u2581v\u1ef1c": 1918,
  "\u58f0": 1919,
  "\u2581ch\u01b0\u01a1ng": 1920,
  "\u5bb3\u6015": 1921,
  "\u2581\u0110ang": 1922,
  "\u5982\u679c": 1923,
  "\u2581kh\u1ea9u": 1924,
  "\u2581Ch\u1ea1y": 1925,
  "\u2581Ho\u1eb7c": 1926,
  "\u5ea6": 1927,
  "\u2581tr\u1ea1i": 1928,
  "\u2581\u0111\u1ea3o": 1929,
  "\u8857": 1930,
  "\u2581\u0111\u1ed9t": 1931,
  "\u2581th\u1edf": 1932,
  "\u2581chim": 1933,
  "\u2581xanh": 1934,
  "\u2581n\u1ee3": 1935,
  "\u63a7\u5236": 1936,
  "\u2581B\u1ed9": 1937,
  "\u2581Gi\u1eef": 1938,
  "\u5728\u9019\u88e1": 1939,
  "\u258130": 1940,
  "\u2581th\u1ecfa": 1941,
  "\u2581t\u01b0\u1edbng": 1942,
  "\u9f99": 1943,
  "\u8fd9\u79cd": 1944,
  "\u548c\u4f60": 1945,
  "\u2581th\u1eadm": 1946,
  "\u7d66\u4f60": 1947,
  "\u5176": 1948,
  "\u2581m\u1eafc": 1949,
  "\u2581h\u1ed9p": 1950,
  "\u2581sang": 1951,
  "\u2581lo\u1ea1n": 1952,
  "\u6218": 1953,
  "\u5730\u65b9": 1954,
  "\u2581V\u1eabn": 1955,
  "\u4e66": 1956,
  "\u2581ch\u1eefa": 1957,
  "\u2581ph\u00ea": 1958,
  "\u633a": 1959,
  "\u2581h\u00f2a": 1960,
  "\u6d1b": 1961,
  "\u2581l\u00e0nh": 1962,
  "\u2581\u662f\u4f60": 1963,
  "\u5728\u8fd9": 1964,
  "\u2581l\u00e1": 1965,
  "\u751f\u6d3b": 1966,
  "\u5c40": 1967,
  "\u865f": 1968,
  "\u2581B\u1eafc": 1969,
  "\u2581\u4e5f\u8bb8": 1970,
  "\u6697": 1971,
  "\u2581\ue652": 1972,
  "\u2581Tin": 1973,
  "\u5a1c": 1974,
  "\u2581h\u1ea1n": 1975,
  "\u2581im": 1976,
  "\u2581x\u1ebfp": 1977,
  "\u2581h\u00fat": 1978,
  "\u7559": 1979,
  "l": 1980,
  "\u2581\u8ba9\u6211": 1981,
  "\u2581Ho\u00e0ng": 1982,
  "\u4e9a": 1983,
  "\u2581B\u1ea5t": 1984,
  "\u2581\u0111o\u1ea1n": 1985,
  "\u2581thu\u00ea": 1986,
  "\u5fd9": 1987,
  "\u7522": 1988,
  "\u5b8c": 1989,
  "\u2581\u00e1nh": 1990,
  "\u5c07": 1991,
  "\u2581Do": 1992,
  "\u2581ch\u1ea1m": 1993,
  "\u2581\u6211\u9700\u8981": 1994,
  "\u4e0b\u6765": 1995,
  "\u540d\u5b57": 1996,
  "\u5316": 1997,
  "\u5988\u5988": 1998,
  "\u2581ki\u1ec7n": 1999,
  "\u25818": 2000,
  "\u56de\u5230": 2001,
  "\u4f60\u8981": 2002,
  "\u2581h\u1eadu": 2003,
  "\u2581b\u1ea1c": 2004,
  "\u2581ng\u1ea1c": 2005,
  "\u559c\u6b61": 2006,
  "7": 2007,
  "\u2581so": 2008,
  "\u2581t\u01b0\u1eddng": 2009,
  "\u2581\u5c0f\u5fc3": 2010,
  "\u4ee5\u524d": 2011,
  "8": 2012,
  "\u2581Ti\u1ebfp": 2013,
  "\u2581t\u1eafm": 2014,
  "\u2581G": 2015,
  "\u300a": 2016,
  "\u2581kh\u1eafp": 2017,
  "--": 2018,
  "\u2581V": 2019,
  "\u2581nguy\u1ec7n": 2020,
  "\u2581s\u1ed5": 2021,
  "\u258112": 2022,
  "\u6839": 2023,
  "\u4e01": 2024,
  "\u2581c\u1ef1c": 2025,
  "\u2581l\u1edbp": 2026,
  "\u2581\u8ddf": 2027,
  "\u2581t\u00fac": 2028,
  "\u2581l\u00e3nh": 2029,
  "\u2581t\u1ea7m": 2030,
  "\u505a\u4e86": 2031,
  "\u5a01": 2032,
  "\u2581qu\u00e1n": 2033,
  "\u2581gi\u01b0\u1eddng": 2034,
  "\u2581\u6c92\u932f": 2035,
  "\u2581thua": 2036,
  "\u9009": 2037,
  "\u2581cung": 2038,
  "\u2581di\u1ec7t": 2039,
  "\u2581r\u00fat": 2040,
  "\u4e0d\u60f3": 2041,
  "\u533a": 2042,
  "\u2581d\u1ef1ng": 2043,
  "\u5374": 2044,
  "\u600e\u4e48\u4e86": 2045,
  "\u2581c\u01a1n": 2046,
  "\u2581Nam": 2047,
  "\u5b83\u4eec": 2048,
  "\u2581\u00fay": 2049,
  "\u2581xinh": 2050,
  "\u5170": 2051,
  "\ue099": 2052,
  "\u2581h\u00e0o": 2053,
  "\u2581nh\u1eafn": 2054,
  "\u6740\u4e86": 2055,
  "\u661f": 2056,
  "\u519b": 2057,
  "\u2581\u53c8": 2058,
  "\u6b21": 2059,
  "\u2581\u4eca\u665a": 2060,
  "\u90a3\u662f": 2061,
  "\u5c0f\u5b69": 2062,
  "10": 2063,
  "\u2581h\u1eefu": 2064,
  "\u2581Cu\u1ed9c": 2065,
  "\u2581k\u00ednh": 2066,
  "#224;": 2067,
  "\u4f60\u662f": 2068,
  "\u2581\u0111\u00edch": 2069,
  "\u884c\u52a8": 2070,
  "\u90e8": 2071,
  "\u2581h\u1ea3o": 2072,
  "\u2581mu\u1ed9n": 2073,
  "\u7714": 2074,
  "\u2581\u5443": 2075,
  "\u6253\u7b97": 2076,
  "\u2581\u5feb\u8d70": 2077,
  "\u67e5": 2078,
  "\u62cd": 2079,
  "\u2581New": 2080,
  "\u2581\u0111\u1ecf": 2081,
  "\u2581\u4f86": 2082,
  "\u70ed": 2083,
  "\u2581qu\u00e0": 2084,
  "\u2581\u0111\u1eadp": 2085,
  "\u2581\u7576\u7136": 2086,
  "\u4e00\u5b9a": 2087,
  "\u8b93": 2088,
  "\u4f53": 2089,
  "\u5c31\u80fd": 2090,
  "\u4e0a\u5e1d": 2091,
  "\u2581t\u00f4n": 2092,
  "\u4f26": 2093,
  "\u8fb9": 2094,
  "\u51b0": 2095,
  "\u600e\u6837": 2096,
  "\u5ba4": 2097,
  "\u2581tr\u1ef1c": 2098,
  "\u2581\u0111\u00e8n": 2099,
  "\u2581m\u00f9i": 2100,
  "\u5176\u4ed6": 2101,
  "\u2581T\u00e2y": 2102,
  "\u2581kh\u00f3c": 2103,
  "\u2581\u6211\u53eb": 2104,
  "\u7559\u4e0b": 2105,
  "\u4f24": 2106,
  "\u4f2f": 2107,
  "\u6bdb": 2108,
  "\u4e8c": 2109,
  "\u7834": 2110,
  "\u5728\u90a3\u91cc": 2111,
  "\u2581d\u1ecdn": 2112,
  "\u2581s\u00e2n": 2113,
  "\u2581thang": 2114,
  "\u6015": 2115,
  "\u9019\u662f": 2116,
  "\u2581qu\u1ea3n": 2117,
  "\u7247": 2118,
  "\u2581\u0111\u00e0i": 2119,
  "\u5c31\u50cf": 2120,
  "\u2581know": 2121,
  "\u2581\u957f\u5b98": 2122,
  "\u6570": 2123,
  "\u73ed": 2124,
  "\u2581\u0111\u00f3i": 2125,
  "\u2581E": 2126,
  "\u300c": 2127,
  "\u6b64": 2128,
  "\u65b9": 2129,
  "\u54ea": 2130,
  "\u827e": 2131,
  "\u2581t\u1ed5ng": 2132,
  "\u2581\u5988\u5988": 2133,
  "\u52d5": 2134,
  "\u2581'": 2135,
  "\u6c23": 2136,
  "\u2581n\u00fai": 2137,
  "\u2581\u4f60\u4e0d\u662f": 2138,
  "\u2581L\u00ean": 2139,
  "\u2581t\u1ea7ng": 2140,
  "\u4e86\u5427": 2141,
  "\u8fde": 2142,
  "\u9580": 2143,
  "\u2581t\u1ed3n": 2144,
  "\u5904": 2145,
  "\u2581Ng\u1ed3i": 2146,
  "\u585e": 2147,
  "\u901a": 2148,
  "\u600e\u9ebc": 2149,
  "\u2581Qu\u00e1": 2150,
  "\u2581\u6211\u89c9\u5f97": 2151,
  "\u5b8c\u6210": 2152,
  "\u2581Hi\u1ec3u": 2153,
  "\u4e0d\u53ef\u80fd": 2154,
  "\u96be": 2155,
  "\u2581ch\u01b0": 2156,
  "\u2581\u56e0\u4e3a\u6211": 2157,
  "\u96c5": 2158,
  "\u602a": 2159,
  "\u2581truy": 2160,
  "\u5152": 2161,
  "\u544a\u8a34\u6211": 2162,
  "\u53eb\u6211": 2163,
  "\u2581\u4ed6\u5728": 2164,
  "\u75c5": 2165,
  "P": 2166,
  "\u2581ch\u1eb7t": 2167,
  "\u592b\u4eba": 2168,
  "\ue2c9": 2169,
  "\u7167": 2170,
  "\u2581gi\u1ea5c": 2171,
  "\u52d2": 2172,
  "\u5927\u4eba": 2173,
  "\u6cb9": 2174,
  "\u7406": 2175,
  "\u2581G\u1ecdi": 2176,
  "\u2581\u6211\u53bb": 2177,
  "\u9519": 2178,
  "on": 2179,
  "\u2581and": 2180,
  "la": 2181,
  "\u2581\u0111\u1ed1ng": 2182,
  "\u6240\u6709\u7684": 2183,
  "\u2581\u4f86\u5427": 2184,
  "\u5973\u58eb": 2185,
  "\u9760": 2186,
  "\u662f\u500b": 2187,
  "\u2581We": 2188,
  "\u8c22\u8c22": 2189,
  "\u2581t\u00e0n": 2190,
  "\u300b": 2191,
  "\u5077": 2192,
  "\u2581d\u00ednh": 2193,
  "L": 2194,
  "\u83ab": 2195,
  "\u2581\u6211\u5df2\u7ecf": 2196,
  "\u662f\u8ab0": 2197,
  "le": 2198,
  "\u5200": 2199,
  "\u8ba9\u4ed6": 2200,
  "\u2581C\u1ea9n": 2201,
  "\u2581tr\u1ec5": 2202,
  "\u2581tung": 2203,
  "\u6cb3": 2204,
  "\u2581nh\u1ea7m": 2205,
  "\u6df1": 2206,
  "\u2581M\u1ed7i": 2207,
  "\u2581l\u00ed": 2208,
  "\u7f8e\u56fd": 2209,
  "\u2581r\u1eebng": 2210,
  "\u57fa": 2211,
  "\u5931": 2212,
  "\u5dde": 2213,
  "\u6307": 2214,
  "\u2581\u4ed6\u7684": 2215,
  "\u6545\u4e8b": 2216,
  "\u5f3a": 2217,
  "\u2581x\u00e2y": 2218,
  "\u2581\u88ab": 2219,
  "\u5e2e": 2220,
  "\u2581\u4e0d\u80fd": 2221,
  "\u5f85": 2222,
  "\u2581\u6240\u4ee5\u6211": 2223,
  "\u2581\u62c9": 2224,
  "\u745e": 2225,
  "\u2581\u7842": 2226,
  "\u2581t\u1edd": 2227,
  "\u5e72\u561b": 2228,
  "\u9019\u9ebc": 2229,
  "\u2581l\u01b0ng": 2230,
  "\u5e1d": 2231,
  "\u2581ch\u1ee5p": 2232,
  "\u2581v\u1ee1": 2233,
  "\u2581\u1ea9n": 2234,
  "00": 2235,
  "\u535a\u58eb": 2236,
  "\u611f\u5230": 2237,
  "\u5230\u5e95": 2238,
  "\u9009\u62e9": 2239,
  "\u4f20": 2240,
  "al": 2241,
  "\u2581\u4e3a\u4e86": 2242,
  "\u2581ch\u00eca": 2243,
  "\u2581th\u1eeba": 2244,
  "\u2581h\u1ea7m": 2245,
  "\u2581..": 2246,
  "\u5e73": 2247,
  "\u2581d\u00e0ng": 2248,
  "\u4fbf": 2249,
  "\u7a0b": 2250,
  "\u2581[": 2251,
  "\u623f": 2252,
  "\u77f3": 2253,
  "cHFF": 2254,
  "\u2581m\u1ec7t": 2255,
  "\u2581ti\u1ec3u": 2256,
  "\u63a8": 2257,
  "\u81ea\u7531": 2258,
  "\u2581m\u00f9a": 2259,
  "\u2581ph\u1eadn": 2260,
  "\u2581\u5f88": 2261,
  "\u724c": 2262,
  "\u2581B\u1eafn": 2263,
  "\u5dee": 2264,
  "\u5c31\u8981": 2265,
  "\u987f": 2266,
  "\u2581C\u1ee7a": 2267,
  "\u2581lo\u00e0i": 2268,
  "\u6848": 2269,
  "\u4f5b": 2270,
  "\u6e05": 2271,
  "H": 2272,
  "\u2581kh\u1eafc": 2273,
  "\u2581t\u1ea1m": 2274,
  "\u2581ng\u1eebng": 2275,
  "\u51e0": 2276,
  "\u2581ng\u00e0n": 2277,
  "\u600e\u4e48\u529e": 2278,
  "\u6210\u529f": 2279,
  "\u8036": 2280,
  "\u2581t\u00f4": 2281,
  "\u2581\u50cf": 2282,
  "\u7684\u670b\u53cb": 2283,
  "20": 2284,
  "\u5931\u53bb": 2285,
  "\u2581\u5148": 2286,
  "\u2581\u54c7": 2287,
  "\u3106": 2288,
  "\u836f": 2289,
  "\u2581\u4e0d\u7528": 2290,
  "\u2581huynh": 2291,
  "or": 2292,
  "\u2581l\u01b0u": 2293,
  "\u2581No": 2294,
  "\u9577": 2295,
  "\u2581c\u1eafp": 2296,
  "\u2581m\u00ea": 2297,
  "\u2581\u6211\u4e0d\u4f1a": 2298,
  "\ue215": 2299,
  "\u25819": 2300,
  "\u2581\u5929\u54ea": 2301,
  "\u2581M\u1edf": 2302,
  "\u2581la": 2303,
  "\u9054": 2304,
  "\u2581\u6211\u6ca1\u6709": 2305,
  "\u96ea": 2306,
  "\u2581Im": 2307,
  "\u2581c\u1ed9ng": 2308,
  "\u7d22": 2309,
  "\u5965": 2310,
  "ar": 2311,
  "\u2581gi\u01a1": 2312,
  "\u5047": 2313,
  "\u597d\u50cf": 2314,
  "\u2581be": 2315,
  "\u2581n\u00e3o": 2316,
  "\u56fd": 2317,
  "\u2581\u8981\u662f": 2318,
  "\u4e0d\u540c": 2319,
  "\u2581n\u1ed9i": 2320,
  "\u591a\u5c11": 2321,
  "\u7d66": 2322,
  "Anh": 2323,
  "\u8089": 2324,
  "\u2581mu\u00f4": 2325,
  "\u8272": 2326,
  "\u2581C\u1ed5": 2327,
  "\u2581\u00ea": 2328,
  "\u9c7c": 2329,
  "\u6362": 2330,
  "\u5634": 2331,
  "\u611f\u89c9": 2332,
  "\u2581Nga": 2333,
  "\u2581x\u1ee9ng": 2334,
  "\u2581\u597d\u5417": 2335,
  "\u4e0d\u5230": 2336,
  "\u53ef\u662f": 2337,
  "\u6211\u5011\u7684": 2338,
  "\u258115": 2339,
  "\u2581ch\u00e1n": 2340,
  "\u5531": 2341,
  "\u58eb": 2342,
  "\u2581n\u00e9m": 2343,
  "\u4e16": 2344,
  "\u8f6c": 2345,
  "\ue612": 2346,
  "ve": 2347,
  "\u2581ch\u00fac": 2348,
  "\u8389": 2349,
  "\u2581Gi\u00fap": 2350,
  "\u61c2": 2351,
  "\u2581R": 2352,
  "\u2581ngh\u1ec7": 2353,
  "\u2581\u00e1p": 2354,
  "\u957f\u5b98": 2355,
  "\u2581ch\u1eef": 2356,
  "\u2581k\u1ef7": 2357,
  "\u2581nu\u00f4i": 2358,
  "\u2581\u0110\u1ee7": 2359,
  "\u2581\u0111\u1ea9y": 2360,
  "\u975e": 2361,
  "\u4e1d": 2362,
  "\u2581D\u0129": 2363,
  "\u83f2": 2364,
  "\u505c": 2365,
  "\u74e6": 2366,
  "\u5f39": 2367,
  "\u7cfb\u7edf": 2368,
  "\u2581lu\u1eadn": 2369,
  "\u2581t\u1eaft": 2370,
  "\u554f": 2371,
  "\u660e": 2372,
  "\u2581b\u00f2": 2373,
  "\u5173": 2374,
  "\u6709\u9ede": 2375,
  "\u2581kh\u1ed5": 2376,
  "\u2581\u6240\u6709": 2377,
  "\u2581ch\u00e1y": 2378,
  "\u2581d\u1ee5c": 2379,
  "\u2581tr\u1ea5n": 2380,
  "\u8b93\u4f60": 2381,
  "\u2581to\u00e1n": 2382,
  "\u2581\u4f60\u4e0d": 2383,
  "\u2581phong": 2384,
  "\u90fd\u4f1a": 2385,
  "\u2581d\u1ecda": 2386,
  "\u8981\u6c42": 2387,
  "\u9032": 2388,
  "\u5bf9\u6211": 2389,
  "\u8d77\u4f86": 2390,
  "\u4ed6\u5988\u7684": 2391,
  "\u2581n\u1eafm": 2392,
  "\u5b57": 2393,
  "\u5feb\u70b9": 2394,
  "\u2581\u4f60\u4e5f": 2395,
  "\u2581\u56e0\u70ba": 2396,
  "\u4e9e": 2397,
  "\u653f\u5e9c": 2398,
  "\u2581ngu\u1ed3n": 2399,
  "\u2581H": 2400,
  "\u2581khi\u1ec3n": 2401,
  "\u8fdb\u6765": 2402,
  "\u2581\u0110\u1ed3ng": 2403,
  "\u2581ng\u00e2n": 2404,
  "\u2581ng\u1ee5c": 2405,
  "\u5594": 2406,
  "\u843d": 2407,
  "\u5e97": 2408,
  "\u53d1\u751f": 2409,
  "\u5e2e\u6211": 2410,
  "\u2581on": 2411,
  "\u8a00": 2412,
  "\u5de5": 2413,
  "ra": 2414,
  "\u2581Nh\u1edb": 2415,
  "\u2581v\u00ea": 2416,
  "\u662f\u4ec0\u9ebc": 2417,
  "\u2581m\u1ec7nh": 2418,
  "\u2581\u00e1m": 2419,
  "\u2581\u662f\u4e0d\u662f": 2420,
  "\u660e\u5929": 2421,
  "\u2581\u4f46\u662f\u6211": 2422,
  "\u4efb\u4f55\u4eba": 2423,
  "\u2581\u518d\u89c1": 2424,
  "\u2581du": 2425,
  "\u2581Hy": 2426,
  "\u4fee": 2427,
  "\u4f4d": 2428,
  "\u4ee4": 2429,
  "\u4ee5\u540e": 2430,
  "..": 2431,
  "\u2581F": 2432,
  "\u597d\u597d": 2433,
  "\u8bf4\u7684": 2434,
  "\u2581ch\u1eb7n": 2435,
  "\u811a": 2436,
  "\u5c11": 2437,
  "\u5c81": 2438,
  "\u69cd": 2439,
  "\u2581tr\u1ea3i": 2440,
  "\u662f\u5728": 2441,
  "\u2581\u591a": 2442,
  "\u5341": 2443,
  "\u2581Hoa": 2444,
  "\u4e71": 2445,
  "\u597d\u55ce": 2446,
  "\u62c5\u5fc3": 2447,
  "fs": 2448,
  "\u6709\u591a": 2449,
  "\u597d\u5427": 2450,
  "an": 2451,
  "\u2581v\u1eadn": 2452,
  "\u8a72": 2453,
  "\u8fd1": 2454,
  "\u8fdb\u884c": 2455,
  "\u300d": 2456,
  "\u54c1": 2457,
  "\u6539\u53d8": 2458,
  "\u65bc": 2459,
  "\u79bb": 2460,
  "\u4ed6\u4eec\u7684": 2461,
  "\u6234": 2462,
  "\u2581hoang": 2463,
  "\u2581\u6211\u4eec\u4f1a": 2464,
  "\u2581t\u1ecf": 2465,
  "\u5167": 2466,
  "\u904e\u4f86": 2467,
  "\u2581kh\u1ec9": 2468,
  "\u2581m\u00f4ng": 2469,
  "\u79d8\u5bc6": 2470,
  "\u2581nh\u1eabn": 2471,
  "\u6a5f": 2472,
  "\u75db": 2473,
  "\u65b0\u7684": 2474,
  "\u2581quy": 2475,
  "\u2581sa": 2476,
  "\u2581\u6211\u6ca1": 2477,
  "\ue5fb": 2478,
  "\u2581h\u1ee9ng": 2479,
  "\u52aa\u529b": 2480,
  "\u2581t\u1ed9c": 2481,
  "\u2581\u4f60\u6703": 2482,
  "\u2581K\u1ebb": 2483,
  "\u5356": 2484,
  "\u5e76\u4e0d": 2485,
  "\u623f\u5b50": 2486,
  "\u8d8a": 2487,
  "\u2581\u00cdt": 2488,
  "\u2581\u5979\u662f": 2489,
  "\u90fd\u6709": 2490,
  "\ue0a4": 2491,
  "\u2581d\u1eb7m": 2492,
  "\u2581th\u1ee7y": 2493,
  "\u6ee1": 2494,
  "\u7acb": 2495,
  "R": 2496,
  "\u2581b\u00e8": 2497,
  "\u767b": 2498,
  "\u88cf": 2499,
  "\u8fd9\u4e48\u505a": 2500,
  "\u2581\u1ed4n": 2501,
  "\u2581\u6211\u4e5f\u662f": 2502,
  "\u6709\u4e9b": 2503,
  "\u2581b\u1ea7u": 2504,
  "\u2581tr\u1ea1ng": 2505,
  "\u4f86\u7684": 2506,
  "}": 2507,
  "\u2581h\u1ed5": 2508,
  "\u2581Ben": 2509,
  "\u2581Peter": 2510,
  "\u2581\u6211\u73b0\u5728": 2511,
  "\u6c99": 2512,
  "\u2581gh\u1ebf": 2513,
  "\u544a\u8a34\u4f60": 2514,
  "\u5179": 2515,
  "cm": 2516,
  "\u539f": 2517,
  "\u62ff\u5230": 2518,
  "\ue610": 2519,
  "\u89ba\u5f97": 2520,
  "\u2581P": 2521,
  "\u2581\u0110\u1ea7u": 2522,
  "\u2581\u8acb": 2523,
  "\u2581\u90a3\u6211": 2524,
  "\u1ec3": 2525,
  "\u2581th\u00e1i": 2526,
  "\u56e0": 2527,
  "\u4e0d\u9519": 2528,
  "\u627e\u5230\u4e86": 2529,
  "\u4e0a\u7684": 2530,
  "\u662f\u6211\u7684": 2531,
  "\u6b65": 2532,
  "\u2581Uh": 2533,
  "\u2581\u00ca": 2534,
  "\u2581\u00e1": 2535,
  "\u6b7b\u4ea1": 2536,
  "\u2581c\u1ee5c": 2537,
  "\u2581kh\u1edfi": 2538,
  "\u2581s\u1eafc": 2539,
  "\u2581Th\u00e0nh": 2540,
  "\u2581\u8fc7\u6765": 2541,
  "\u53bb\u627e": 2542,
  "\u7ed9\u4ed6": 2543,
  "\u2581\u660e\u5929": 2544,
  "\u2581\u53ef\u80fd": 2545,
  "\u9ad4": 2546,
  "\u2581b\u1ed9i": 2547,
  "\u2581m\u1eabu": 2548,
  "\u2581\u0110\u00e1ng": 2549,
  "\u2581B\u1ecb": 2550,
  "\u2581Ch\u00e0": 2551,
  "\u53f2": 2552,
  "\u6761": 2553,
  "\u81f3": 2554,
  "\u2581m\u0169i": 2555,
  "\u2581this": 2556,
  "\u2581H\u00ecnh": 2557,
  "\u2581d\u00f2ng": 2558,
  "\u2581h\u1ea7u": 2559,
  "\u2581\u5404\u4f4d": 2560,
  "\u2581\u5f53": 2561,
  "\u898b": 2562,
  "\u2581ti\u1ec7n": 2563,
  "\u89e3": 2564,
  "\u2581d\u1ecb": 2565,
  "\u2581k\u00eau": 2566,
  "\u5e72\u4ec0\u4e48": 2567,
  "\u2581h\u00e3i": 2568,
  "\u88dd": 2569,
  "\u5bf9\u4f60": 2570,
  "\u7ed3\u675f": 2571,
  "\u8868": 2572,
  "\u2581e": 2573,
  "\u2581\u6211\u662f\u8bf4": 2574,
  "\u2581khoa": 2575,
  "\u5728\u8fd9\u513f": 2576,
  "\u2581\u5b83\u4eec": 2577,
  "\u2581Nhi\u1ec1u": 2578,
  "\u2581ninh": 2579,
  "\u2581was": 2580,
  "\u4e00\u5929": 2581,
  "\u798f": 2582,
  "\u2581ch\u1eadm": 2583,
  "\u2581\u740c": 2584,
  "\u2581Ph\u00e1p": 2585,
  "\u2581for": 2586,
  "\u2581\u4f46\u4ed6": 2587,
  "\u2581\u4f60\u8bf4": 2588,
  "\u2581\u8fd9\u5c31\u662f": 2589,
  "\u2581Charlie": 2590,
  "\u2581ch\u1ed1i": 2591,
  "\u2581th\u01b0\u1edfng": 2592,
  "\u2581\u5b69\u5b50": 2593,
  "\u4f4e": 2594,
  "\u5fc5\u987b": 2595,
  "\u6d17": 2596,
  "\u91cf": 2597,
  "\u2581\u8ba9": 2598,
  "\u7f85": 2599,
  "\u4f46\u662f": 2600,
  "\u6ce8\u610f": 2601,
  "\u591a\u4e45": 2602,
  "\u5c04": 2603,
  "\u2581v\u0129": 2604,
  "\u725b": 2605,
  "\ue727": 2606,
  "\u2581chuy\u00ea": 2607,
  "\u2581\u6211\u4eec\u5f97": 2608,
  "\u5f20": 2609,
  "Kh\u00f4ng": 2610,
  "\u2581\u0111\u1ed1c": 2611,
  "\u2581\u6211\u5011\u8981": 2612,
  "\u2581\u81f3\u5c11": 2613,
  "N": 2614,
  "\u5408\u4f5c": 2615,
  "\u86cb": 2616,
  "\u2581\u6ca1\u4e8b": 2617,
  "\u5728\u54ea\u513f": 2618,
  "\u7b2c\u4e00\u6b21": 2619,
  "\u904e\u53bb": 2620,
  "\u2581g\u00e0": 2621,
  "\u5c3d": 2622,
  "\u2581ch\u1ea3y": 2623,
  "\u4e0d\u7528": 2624,
  "\u8ab0": 2625,
  "\u2581t\u1eb7ng": 2626,
  "\u2581\u4ee5": 2627,
  "\u2581\u9019\u500b": 2628,
  "\u6539": 2629,
  "\u7ea2": 2630,
  "K": 2631,
  "\u8349": 2632,
  "\u4ee3\u8868": 2633,
  "\u2581Ma": 2634,
  "\u2581The": 2635,
  "\u2581\u4e0d\u597d\u610f\u601d": 2636,
  "\u5c31\u6703": 2637,
  "\u4eba\u7c7b": 2638,
  "\u2581\u0110\u1ed9i": 2639,
  "\u2581Tr\u00ean": 2640,
  "\u2581s\u1ea1n": 2641,
  "\u2581T\u1ef1": 2642,
  "\u2581\u6211\u4eec\u53ef\u4ee5": 2643,
  "\u8bfa": 2644,
  "\u8fdc": 2645,
  "\u6392": 2646,
  "\u8eab\u4e0a": 2647,
  "\u2581Nh\u00e2n": 2648,
  "\u9084\u6709": 2649,
  "\u6700\u597d": 2650,
  "\u2581T\u00ecnh": 2651,
  "\u2581\u7136\u5f8c": 2652,
  "\u4e24\u4e2a": 2653,
  "\u2581\u592a\u597d\u4e86": 2654,
  "\u7ea6": 2655,
  "\u2581It": 2656,
  "\u53cd": 2657,
  "_": 2658,
  "\u8499": 2659,
  "\u4fdd\u62a4": 2660,
  "\u2581N\u01a1i": 2661,
  "\u2581m\u1ed9": 2662,
  "\u4e0a\u53bb": 2663,
  "\u2581s\u00f4ng": 2664,
  "\u5169": 2665,
  "9": 2666,
  "\u2581c\u1ea3n": 2667,
  "\u56e0\u4e3a": 2668,
  "\u2581\u1ea5n": 2669,
  "\u2581Tr\u00e1i": 2670,
  "\u2581tri\u1ec3n": 2671,
  "\u2581xung": 2672,
  "\u5b78": 2673,
  "\u653b\u51fb": 2674,
  "\u2581H\u1ea1": 2675,
  "\u79cd": 2676,
  "\u7684\u5de5\u4f5c": 2677,
  "\u82f1\u96c4": 2678,
  "\u2581York": 2679,
  "\u2581\u0111\u00e0o": 2680,
  "12": 2681,
  "fn": 2682,
  "\u2581si\u00eau": 2683,
  "\u529e": 2684,
  "\u6562": 2685,
  "\u2581dao": 2686,
  "\u671f": 2687,
  "\u6e05\u695a": 2688,
  "\u817f": 2689,
  "\u2581Gi\u1ebft": 2690,
  "\u2581t\u00e1n": 2691,
  "\u51b7": 2692,
  "\u7968": 2693,
  "\u8d85": 2694,
  "\u53f0": 2695,
  "\u2581T\u1ee5i": 2696,
  "\u2581not": 2697,
  "\u2581\u665a\u5b89": 2698,
  "\u2581O": 2699,
  "\u2581n\u01b0": 2700,
  "\u2581th\u01a1": 2701,
  "\u6216\u8005": 2702,
  "\u2581\u9019\u6a23": 2703,
  "\u59ae": 2704,
  "\u5ba2": 2705,
  "\u751f\u547d": 2706,
  "\u8aaa\u8a71": 2707,
  "\u2581\u6c42\u4f60\u4e86": 2708,
  "\u613f\u610f": 2709,
  "\u2581kh\u00e1m": 2710,
  "\u5355": 2711,
  "\u6c42": 2712,
  "\u77e5": 2713,
  "\u9632": 2714,
  "\u2581t\u1ed1c": 2715,
  "\u2581\u544a\u8bc9\u6211": 2716,
  "\u2581hi": 2717,
  "\u2581\u8fd9\u4e0d\u662f": 2718,
  "\u2581r\u1ed9ng": 2719,
  "\u8a71": 2720,
  "\u8d70\u5427": 2721,
  "\u2581h\u01b0": 2722,
  "\u2581kho\u1ea3n": 2723,
  "\u2581C\u01a1": 2724,
  "\u537b": 2725,
  "\u2581my": 2726,
  "\u6309": 2727,
  "\u7684\u6771\u897f": 2728,
  "\u8acb": 2729,
  "\u2581bang": 2730,
  "\u2581\u0111\u1ecbch": 2731,
  "\u2581\u1ed1ng": 2732,
  "\u2581\u4f60\u600e\u4e48": 2733,
  "\u8863\u670d": 2734,
  "\u8f49": 2735,
  "\u2581h\u00e0i": 2736,
  "\u2581l\u1ed7": 2737,
  "\u2581\u0111i\u1ec7p": 2738,
  "\u2581\u807d\u8457": 2739,
  "\u4f7f\u7528": 2740,
  "\u76f4\u63a5": 2741,
  "\u8054\u7cfb": 2742,
  "\u8ba4\u4e3a": 2743,
  "\u535a": 2744,
  "\u2581\u6211\u5f88": 2745,
  "\u6811": 2746,
  "\u2581gi\u00e0y": 2747,
  "\u5357": 2748,
  "\u8d5b": 2749,
  "\u2581c\u1ee5": 2750,
  "\u2581h\u1ea1t": 2751,
  "\u2581lao": 2752,
  "\u2581l\u00f4": 2753,
  "\u5217": 2754,
  "\u5458": 2755,
  "\u6e38": 2756,
  "\u5728\u6211": 2757,
  "\u5bc6": 2758,
  "G": 2759,
  "\u2581r\u1ed3ng": 2760,
  "\u2581v\u1ebd": 2761,
  "\u8c03": 2762,
  "O": 2763,
  "\u2581r\u1ed3": 2764,
  "\u4e0d\u53ef": 2765,
  "\u2581C\u00e2u": 2766,
  "\u2581chu\u1ed9t": 2767,
  "\u2581ph\u1ea9m": 2768,
  "\u2581\u5b9d\u8d1d": 2769,
  "\u5abd\u5abd": 2770,
  "\u8ba4\u8bc6": 2771,
  "\u2581Th\u1ea7y": 2772,
  "\u2581c\u1edd": 2773,
  "\u4e0d\u5728": 2774,
  "\u8bfb": 2775,
  "\u9996": 2776,
  "\u2581gi\u1ea3m": 2777,
  "\u2581vinh": 2778,
  "\u2581khi\u1ebfp": 2779,
  "\u2581nghi\u00ean": 2780,
  "\u2581\u0102n": 2781,
  "\u516b": 2782,
  "\u8173": 2783,
  "\u2581b\u1ee5ng": 2784,
  "\u53e4": 2785,
  "\u6c11": 2786,
  "\u2581\u6bd4": 2787,
  "\u7814\u7a76": 2788,
  "\u6765\u8fd9\u91cc": 2789,
  "\u2581Gi\u00e1o": 2790,
  "\u8fdb\u5165": 2791,
  "\u958b\u59cb": 2792,
  "\u2581gi\u1ecdng": 2793,
  "\u2581Thi\u00ean": 2794,
  "\u2581tan": 2795,
  "\u2581ti\u00ea": 2796,
  "\u8ffd": 2797,
  "\u2581t\u1ed5n": 2798,
  "\u2581\u4e0d\u7ba1": 2799,
  "\u98df": 2800,
  "\u2581l\u01b0\u01a1ng": 2801,
  "\u2581\u827e": 2802,
  "\u5236": 2803,
  "\u54ed": 2804,
  "\u2581Cu\u1ed1i": 2805,
  "\u2581gi\u00e1m": 2806,
  "\u7b49\u7b49": 2807,
  "\u2581Jim": 2808,
  "\u6d88\u606f": 2809,
  "r": 2810,
  "\u2581Phi": 2811,
  "\u2581your": 2812,
  "\u2581\u662f\u55ce": 2813,
  "\u7ef4": 2814,
  "\u80af": 2815,
  "\u2581\u0111\u1ec7": 2816,
  "\u2581\u4f60\u77e5\u9053\u6211": 2817,
  "\u53ca": 2818,
  "\u8207": 2819,
  "\u2581thi\u1ec7u": 2820,
  "\u2581gi\u00f3": 2821,
  "\u2581r\u0103ng": 2822,
  "\u2581Th\u00e1i": 2823,
  "\u4f60\u5728": 2824,
  "\u8d1f\u8d23": 2825,
  "\u2581\u53eb": 2826,
  "\u5bf9\u5427": 2827,
  "\u95dc": 2828,
  "\u2581x\u01b0a": 2829,
  "\u2581th\u01b0\u1ee3ng": 2830,
  "\u4eb2": 2831,
  "\u7d0d": 2832,
  "\u89d2": 2833,
  "\u2581gi\u00e0u": 2834,
  "\u2581k\u1eb9t": 2835,
  "\u2581t\u1ea1p": 2836,
  "\u62bd": 2837,
  "\u7535": 2838,
  "\ue65e": 2839,
  "\u6df7\u86cb": 2840,
  "\u2581th\u1edd": 2841,
  "\u2581\u1ea3": 2842,
  "\u2581\u6240\u4ee5\u4f60": 2843,
  "\u2581t\u00f3m": 2844,
  "\u2581che": 2845,
  "\u2581\u0110\u00e2u": 2846,
  "\u2581\u00d4": 2847,
  "\u72af": 2848,
  "\u5fd8\u4e86": 2849,
  "\u624d\u662f": 2850,
  "\u7684\u5b69\u5b50": 2851,
  "\u2581Harry": 2852,
  "\u2581v\u00e2ng": 2853,
  "\u3050\u6216": 2854,
  "\u6210\u4e3a": 2855,
  "\u2581N\u0103m": 2856,
  "\u5371\u9669": 2857,
  "\u2581J": 2858,
  "\u753b": 2859,
  "\u2581H\u1ebft": 2860,
  "\u6211\u4e0d\u77e5\u9053": 2861,
  "\u91cc\u9762": 2862,
  "\u2581\u8be5\u6b7b": 2863,
  "\u7531": 2864,
  "\u8981\u53bb": 2865,
  "\u2581B\u1eb1ng": 2866,
  "\u2581giam": 2867,
  "\u672a": 2868,
  "\u5143": 2869,
  "\u2581\u0111\u1ee5ng": 2870,
  "\u4f60\u597d": 2871,
  "\u6293": 2872,
  "\u2581n\u1ed1i": 2873,
  "\u5b89\u6392": 2874,
  "\u2581n\u00f4": 2875,
  "\u2581tho\u1ea3i": 2876,
  "\u2581\u7b49": 2877,
  "\u574f": 2878,
  "\u591c": 2879,
  "\u7684\u539f\u56e0": 2880,
  "\u4e0b\u4f86": 2881,
  "\u65af\u7279": 2882,
  "\u2581\u5594": 2883,
  "\u2581\u5bf9\u5427": 2884,
  "\u8bed": 2885,
  "\u603b\u662f": 2886,
  "\u85cf": 2887,
  "\u2581khoan": 2888,
  "\u516d": 2889,
  "\u56fe": 2890,
  "\u5757": 2891,
  "\u7678": 2892,
  "\ue707\ue019": 2893,
  "\u7f6a": 2894,
  "\u90a3\u6a23": 2895,
  "\u7e7c\u7e8c": 2896,
  "\u2581\u1ed4": 2897,
  "\ue710": 2898,
  "\u2581S\u1eb5n": 2899,
  "\u2581What": 2900,
  "\u6765\u8bf4": 2901,
  "\u9019\u88e1": 2902,
  "\u2581b\u1ea9n": 2903,
  "\u7206\u70b8": 2904,
  "\u78b0": 2905,
  "\u2581\u4f19\u8ba1": 2906,
  "\u5168\u90e8": 2907,
  "\u2581h\u1ea5p": 2908,
  "\u83dc": 2909,
  "\u2581\u6211\u5e0c\u671b": 2910,
  "\u61c9\u8a72": 2911,
  "\u2581\u8ba9\u6211\u4eec": 2912,
  "\u6211\u6703": 2913,
  "\u2581ngh\u1ec1": 2914,
  "\u2581\u800c\u6211": 2915,
  "\u4efd": 2916,
  "\u548c\u4ed6": 2917,
  "\u7684\u751f\u6d3b": 2918,
  "\u8ddf\u4ed6": 2919,
  "\u2581ng\u01b0\u1ee3c": 2920,
  "\u5b98": 2921,
  "\u2581V\u1ea5n": 2922,
  "\u2581chi\u1ec1u": 2923,
  "\u2581\u0111ua": 2924,
  "\u2581B\u00ean": 2925,
  "\u6211\u53ef\u4ee5": 2926,
  "\u62a5\u544a": 2927,
  "ni\u1ec1m": 2928,
  "\u2581\u0111eo": 2929,
  "\u53ea\u80fd": 2930,
  "\u52a0\u5165": 2931,
  "\u6211\u5728": 2932,
  "\u2581ngoan": 2933,
  "\u542c\u5230": 2934,
  "\u2581\u5e0c\u671b": 2935,
  "\u5904\u7406": 2936,
  "\u2581m\u00e0n": 2937,
  "\u8fd8\u5728": 2938,
  "\u2581Chu\u1ea9n": 2939,
  "\u6700\u597d\u7684": 2940,
  "\u2581n": 2941,
  "\u2581\u53ea": 2942,
  "\u2581\u6211\u5f88\u62b1\u6b49": 2943,
  "\u7684\u5c0f": 2944,
  "ri": 2945,
  "\u4ee3": 2946,
  "\u521a": 2947,
  "\u540e\u9762": 2948,
  "\u2581tr\u1ed1ng": 2949,
  "\u2581t\u1eafc": 2950,
  "\u79e8": 2951,
  "\u2581s\u00f3ng": 2952,
  "\u501f": 2953,
  "\u5207": 2954,
  "\u2581\u00f4": 2955,
  "\u2581h\u1ecdp": 2956,
  "\u8655": 2957,
  "\u2581b\u01a1i": 2958,
  "\u6bd2": 2959,
  "\u7684\u5973\u4eba": 2960,
  "\u7684\u6545\u4e8b": 2961,
  "\u2581\u5927\u5bb6\u90fd": 2962,
  "\u4e0a\u4e86": 2963,
  "\u6c89": 2964,
  "\ue1a0": 2965,
  "\u2581\u4f60\u771f": 2966,
  "\u2581Mike": 2967,
  "\u2581k\u1ecbch": 2968,
  "\u4ea4\u6613": 2969,
  "\u4fdd\u6301": 2970,
  "\u8bc1\u660e": 2971,
  "\u2581\u4e09": 2972,
  "\u6ca1\u4e8b": 2973,
  "\u2581\u6c92": 2974,
  "\u2581Th\u1ea3": 2975,
  "\u2581phu": 2976,
  "\u5c0f\u5b50": 2977,
  "\u89e3\u91ca": 2978,
  "\u547d\u4ee4": 2979,
  "\u600e\u6a23": 2980,
  "\ue0f8": 2981,
  "\u2581Ch\u1ed7": 2982,
  "\u2581\u0110\u00f4i": 2983,
  "\u8b8a": 2984,
  "\u5ff5": 2985,
  "\u2581Chi\u1ebfn": 2986,
  "\u6295": 2987,
  "\u8c03\u67e5": 2988,
  "\u6230": 2989,
  "]": 2990,
  "el": 2991,
  "\u6025": 2992,
  "\u8d27": 2993,
  "\u4f60\u4f1a": 2994,
  "\ue6d5": 2995,
  "\u2581kim": 2996,
  "\u2581\u0111\u00f2i": 2997,
  "\u665a\u4e0a": 2998,
  "\u90a3\u8fb9": 2999,
  "\u2581\u0111\u1ed1t": 3000,
  "\u6f14": 3001,
  "\u8428": 3002,
  "\u2581ph\u00e1n": 3003,
  "\u2581vai": 3004,
  "\u7684\u95ee\u9898": 3005,
  "\u7ec4\u7ec7": 3006,
  "\u8df3\u821e": 3007,
  "\u6211\u4e5f": 3008,
  "\u2581G\u1eb7p": 3009,
  "\u2581Bao": 3010,
  "\u2581OK": 3011,
  "\u4e50": 3012,
  "\u62b1\u6b49": 3013,
  "\u2581th\u00e1nh": 3014,
  "\u2581\u6211\u4eec\u7684": 3015,
  "\u7136\u540e": 3016,
  "\u2581khuy\u00ean": 3017,
  "\u8fd8\u6ca1": 3018,
  "\u4ef6": 3019,
  "\u2581\u6211\u559c\u6b22": 3020,
  "\u5e15": 3021,
  "\u2581Xong": 3022,
  "\u2581trao": 3023,
  "\u2581James": 3024,
  "\u2581canh": 3025,
  "\u7b2c\u4e00": 3026,
  "ie": 3027,
  "\u2581c\u00fa": 3028,
  "\u2581mi": 3029,
  "\u2581\u6536\u5230": 3030,
  "\u2581k\u1ecbp": 3031,
  "\u7259": 3032,
  "\u91ab\u751f": 3033,
  "1\\": 3034,
  "\u2581n\u00e1t": 3035,
  "\u4e3a\u4e86": 3036,
  "\u2581Ph\u00f2ng": 3037,
  "\u2581bi": 3038,
  "\u514b\u65af": 3039,
  "\u540c\u610f": 3040,
  "\u2581--": 3041,
  "\u2581nh\u00e2": 3042,
  "\u2581v\u1ea9n": 3043,
  "\u4f7f": 3044,
  "\u5f62": 3045,
  "\u6728": 3046,
  "\u8138": 3047,
  "\u5e2e\u4f60": 3048,
  "\u2581nh\u1eb9": 3049,
  "\u2581\u1ea5m": 3050,
  "\u2581\u6211\u8bf4": 3051,
  "\u5f88\u68d2": 3052,
  "\u6536\u5230": 3053,
  "30": 3054,
  "\u2581Ko": 3055,
  "\u2581chi\u1ebfm": 3056,
  "\u2581\u5f9e": 3057,
  "\u7684\u65f6\u95f4": 3058,
  "\u8863": 3059,
  "\u2581m\u1ed3m": 3060,
  "\u6574\u4e2a": 3061,
  "\u8b66": 3062,
  "\u2581\u800c\u4f60": 3063,
  "\u5728\u90a3": 3064,
  "\u600e\u9ebc\u6a23": 3065,
  "\u81ed": 3066,
  "\u2581r\u00e1c": 3067,
  "\u2581\u975e\u5e38": 3068,
  "\u5bb6\u4eba": 3069,
  "\u4e00\u500b\u4eba": 3070,
  "\u5176\u4ed6\u4eba": 3071,
  "\u5251": 3072,
  "\u5723": 3073,
  "\u53bb\u5427": 3074,
  "\u2581thi\u1ec7n": 3075,
  "\u9e1f": 3076,
  "\u603b\u7edf": 3077,
  "\u6578": 3078,
  "\u9732": 3079,
  "\u2581v\u01b0\u01a1ng": 3080,
  "\u662f\u5426": 3081,
  "\u570b": 3082,
  "\u2581\u5361": 3083,
  "\u5b8c\u4e86": 3084,
  "\u97f3": 3085,
  "\u5340": 3086,
  "\u2581\u2013": 3087,
  "\u5343": 3088,
  "\u62db": 3089,
  "\u01d0": 3090,
  "\u5468": 3091,
  "\u6771\u897f": 3092,
  "\u76f4": 3093,
  "\u2581nha": 3094,
  "\u2581\u4f60\u5e94\u8be5": 3095,
  "\u2581\u7ee7\u7eed": 3096,
  "\u60f3\u5230": 3097,
  "\u8bf4\u4ec0\u4e48": 3098,
  "\u2581He": 3099,
  "\u2581t\u1ea3i": 3100,
  "\u57ce\u5e02": 3101,
  "\u2581Claire": 3102,
  "\u2581\u0111\u1ebf": 3103,
  "\u806a\u660e": 3104,
  "\u2581\u5929": 3105,
  "\u7537\u5b69": 3106,
  "\u80cc": 3107,
  "\u4efb": 3108,
  "\u6574": 3109,
  "\u4f60\u53ef\u4ee5": 3110,
  "\u51b2": 3111,
  "\u5206\u949f": 3112,
  "\u901a\u8fc7": 3113,
  "\u2581\u0110\u01b0\u1eddng": 3114,
  "\u773c\u775b": 3115,
  "\u2581gh\u00ea": 3116,
  "\u2581\u0111\u00e2m": 3117,
  "\u2581\u4f60\u89c9\u5f97": 3118,
  "\u2581George": 3119,
  "\u2581l\u1eabn": 3120,
  "\u5957": 3121,
  "\u2581ph\u1ea1t": 3122,
  "\u4e0d\u592a": 3123,
  "\u4e5f\u8bb8": 3124,
  "\u5e08": 3125,
  "th": 3126,
  "\u4f60\u4eec\u7684": 3127,
  "\u8ac7": 3128,
  "\u2581\u5e76": 3129,
  "\u2581\u6211\u771f\u7684": 3130,
  "\u4efb\u52a1": 3131,
  "\u5b88": 3132,
  "\u2581\u0110\u01b0\u01a1": 3133,
  "\u670d": 3134,
  "\u838e": 3135,
  "\u2581ng\u00e3": 3136,
  "\u53d8\u6210": 3137,
  "\u603b": 3138,
  "?\"": 3139,
  "ly": 3140,
  "\u4e00\u4f4d": 3141,
  "\u5f00\u67aa": 3142,
  "\u95f4": 3143,
  "\u2581S\u1ebfp": 3144,
  "\u2581S\u1ed1": 3145,
  "\u2581tr\u01b0a": 3146,
  "\u2581th\u1ebb": 3147,
  "\u2581\u0110\u00e1nh": 3148,
  "\u5c31\u597d": 3149,
  "\u5e8a": 3150,
  "\u5f53\u7136": 3151,
  "\u2581\u62dc\u8a17": 3152,
  "\u5beb": 3153,
  "\u6bcf": 3154,
  "\u2581c\u1ea5t": 3155,
  "\u2581hi\u1ec7p": 3156,
  "\u2581x\u00e3": 3157,
  "\u2581\u0111\u00e1p": 3158,
  "\u2581\u0111\u1ea1t": 3159,
  "\u4e1c": 3160,
  "\u4fdd": 3161,
  "\u2581Th\u1eddi": 3162,
  "\u2581m\u00e8o": 3163,
  "\u2581\u77e5\u9053": 3164,
  "\u4e5f\u6709": 3165,
  "\u60c5\u51b5": 3166,
  "\u82e6": 3167,
  "\u89e3\u51b3": 3168,
  "\u2581c\u1eb7p": 3169,
  "\u50bb": 3170,
  "\u5728\u54ea\u88e1": 3171,
  "\u66f4\u591a": 3172,
  "\u2581c\u1ee1": 3173,
  "\u2581th\u1ea3m": 3174,
  "\u5993": 3175,
  "\u2581V\u1ee3": 3176,
  "\u2581\u0111i\u00ea": 3177,
  "\u505c\u6b62": 3178,
  "\u2581ga": 3179,
  "\u2581phi\u1ebfu": 3180,
  "\u2581\u9019\u4e9b": 3181,
  "15": 3182,
  "\u4e0d\u8fc7": 3183,
  "\u4e2a\u4eba": 3184,
  "\u62a5": 3185,
  "\u2581M\u00e1y": 3186,
  "\u2581b\u1ea1o": 3187,
  "\u4f60\u81ea\u5df1": 3188,
  "\u2581tr\u1ee5": 3189,
  "\u2581xuy\u00ean": 3190,
  "\u4eb2\u7231\u7684": 3191,
  "\u2581Tr\u1ea3": 3192,
  "\u5e2e\u52a9": 3193,
  "202020}": 3194,
  "\u2581Qu\u00e2n": 3195,
  "\u2581have": 3196,
  "\u2581h\u00f4": 3197,
  "\u70ba\u4ec0\u9ebc": 3198,
  "\u8d39": 3199,
  "\u2581\u266b": 3200,
  "\u91cd\u65b0": 3201,
  "\u94c1": 3202,
  "\u2581c\u1ee9ng": 3203,
  "\u2581d\u1ea1ng": 3204,
  "\u2581C\u00e1ch": 3205,
  "\u2581\u4ed6\u8bf4": 3206,
  "\u5982\u679c\u4f60": 3207,
  "\u5f17": 3208,
  "\u2581\u4ed6\u4f1a": 3209,
  "\u2581ng\u1ecdn": 3210,
  "\u2581\u6211\u5c31\u662f": 3211,
  "\u4e00\u4efd": 3212,
  "\u56fd\u5bb6": 3213,
  "\u5bb3": 3214,
  "\u2581th\u00e1m": 3215,
  "\u2581Michael": 3216,
  "\u2581l\u00e3ng": 3217,
  "\u2581\u0110\u00eam": 3218,
  "\u2581\u6211\u60f3\u4f60": 3219,
  "\u5e76": 3220,
  "\ue6c4": 3221,
  "\u601d": 3222,
  "\u7ed3\u5a5a": 3223,
  "\u2581\u0110\u00f4ng": 3224,
  "\u4f4f\u5728": 3225,
  "\u2581l\u00f4i": 3226,
  "\u2581th\u1ee3": 3227,
  "\u53d4\u53d4": 3228,
  "\u2581x\u01b0\u01a1ng": 3229,
  "\u5496\u5561": 3230,
  "\u2581c\u1eadn": 3231,
  "\u2581what": 3232,
  "\u96e3": 3233,
  "50": 3234,
  "\u56de\u6765\u4e86": 3235,
  "\u6709\u4e00\u4e2a": 3236,
  "\u6bcd": 3237,
  "\u2581Thi\u1ebf": 3238,
  "\u591f": 3239,
  "\u5e0c": 3240,
  "\u6253\u7535\u8bdd": 3241,
  "\u662f\u5427": 3242,
  "\u2581he": 3243,
  "\u2581thi\u1ec7t": 3244,
  "\u4e0d\u518d": 3245,
  "\u98df\u7269": 3246,
  "\u2581\u76f4\u5230": 3247,
  "\u2581\u76f8\u4fe1\u6211": 3248,
  "\u4f60\u60f3": 3249,
  "\u8fd9\u6837\u505a": 3250,
  "\u2581\u56e0\u4e3a\u4f60": 3251,
  "\u2581\u597d\u55ce": 3252,
  "\u5b9d\u8d1d": 3253,
  "\u767e": 3254,
  "\u2581Gia": 3255,
  "\u771f\u76f8": 3256,
  "\u91cd\u8981": 3257,
  "\u2581G\u00e3": 3258,
  "\u2581\u90fd\u662f": 3259,
  "\u94f6\u884c": 3260,
  "\u2581nam": 3261,
  "\u2581no": 3262,
  "\u2581v\u00f5": 3263,
  "\u2581L\u1ea1y": 3264,
  "\u2581kho": 3265,
  "\u602a\u7269": 3266,
  "\u98de\u673a": 3267,
  "\ue5e6\ue14c": 3268,
  "\u2581\u4f60\u73b0\u5728": 3269,
  "\u5171": 3270,
  "\u72fc": 3271,
  "\u85e5": 3272,
  "k": 3273,
  "\u4e3a\u4f60": 3274,
  "\u86e4": 3275,
  "\u2581M\u1eddi": 3276,
  "\u6208": 3277,
  "\u2581\u5144\u5f1f": 3278,
  "\u2581\u6211\u8981\u4f60": 3279,
  "\u4ed8": 3280,
  "\u840a": 3281,
  "\u9a6c\u4e0a": 3282,
  "\u2581kh\u1ee9": 3283,
  "\u2581\u0111e": 3284,
  "\u6240\u4ee5": 3285,
  "\u8fd9\u4e48\u8bf4": 3286,
  "\u9ebb\u70e6": 3287,
  "\u4ed6\u662f": 3288,
  "\u5b58\u5728": 3289,
  "\u8fd9\u513f": 3290,
  "\ue603": 3291,
  "\u4f60\u80fd": 3292,
  "\u5c31\u5728": 3293,
  "\u5e2e\u5fd9": 3294,
  "\u66fe": 3295,
  "\u9053\u6b49": 3296,
  "\u2581\u4e0d\u904e": 3297,
  "\u5728\u9019": 3298,
  "\u673a\u4f1a": 3299,
  "\u4e5d": 3300,
  "\u9003": 3301,
  "\u628a\u5979": 3302,
  "\u767c\u73fe": 3303,
  "\u77ed": 3304,
  "\u9ebc": 3305,
  "\u2581N\u00e8": 3306,
  "\u2581Tom": 3307,
  "\u4f60\u77e5\u9053": 3308,
  "\u5c31\u53ef\u4ee5": 3309,
  "\u5e95": 3310,
  "\u6740\u4eba": 3311,
  "\u7a2e": 3312,
  "\u2581\u6211\u6765": 3313,
  "\u662f\u4e00\u4e2a": 3314,
  "\u90a3\u9ebc": 3315,
  "\u2581h\u00f2": 3316,
  "\u2581Tay": 3317,
  "\u2581c\u00e3i": 3318,
  "\u2581\u9664\u4e86": 3319,
  "\u6211\u80fd": 3320,
  "\u862d": 3321,
  "\u4f60\u5c31": 3322,
  "\u610f\u5916": 3323,
  "\u2581d\u1ee5": 3324,
  "\u2581\u8b1d\u8b1d\u4f60": 3325,
  "\u2581\u8b93\u6211": 3326,
  "\u5403\u4e86": 3327,
  "\u90fd\u8981": 3328,
  "\u2581v": 3329,
  "\u6478": 3330,
  "\u2581\u8ab0": 3331,
  "\u4e03": 3332,
  "\u2581v\u1edb": 3333,
  "\u2581\u8001\u5144": 3334,
  "\u611f": 3335,
  "\u2581th\u0103ng": 3336,
  "\u2581\u662f\u5427": 3337,
  "\u2581H\u1ea3": 3338,
  "\u2581m\u1ebd": 3339,
  "\u4e0a\u9762": 3340,
  "\u76ee\u6807": 3341,
  "\u2581Mang": 3342,
  "\u2581c\u00e2n": 3343,
  "\u2581\u1edc": 3344,
  "\u2581\u600e\u9ebc\u4e86": 3345,
  "\u8bf4\u4e86": 3346,
  "\u2581H\u1ed9i": 3347,
  "\u6e38\u620f": 3348,
  "\u98a8": 3349,
  "\u2581Ch\u00e2u": 3350,
  "\u63d0\u4f9b": 3351,
  "\u5e02": 3352,
  "\u2581c\u1eadp": 3353,
  "f": 3354,
  "\u2581\u4f60\u771f\u7684": 3355,
  "\u3107": 3356,
  "\u53c2\u52a0": 3357,
  "\u5bb6\u5ead": 3358,
  "\u627e\u4f60": 3359,
  "\u9876": 3360,
  "\u51fa\u73b0": 3361,
  "\u7ed3": 3362,
  "\u9032\u53bb": 3363,
  "\u9047\u5230": 3364,
  "\u94a9": 3365,
  "\u2581s\u00f4": 3366,
  "\u2581\u5988\u7684": 3367,
  "\u5f88\u91cd\u8981": 3368,
  "\u8ba9\u6211\u4eec": 3369,
  "\u2581t\u1ed1": 3370,
  "\u2581\u5c31\u5728": 3371,
  "\u6bd4\u8d5b": 3372,
  "\u2581G\u1ea7n": 3373,
  "\u7279\u522b": 3374,
  "\u2581M\u1eb7c": 3375,
  "\u539f\u56e0": 3376,
  "\u5b66\u6821": 3377,
  "\u8072": 3378,
  "\ue652\ue145": 3379,
  "\u2581Vui": 3380,
  "\u2581l\u00e2": 3381,
  "\u2581\u5982\u679c\u4ed6": 3382,
  "\u4e2d\u7684": 3383,
  "\u771f\u6b63\u7684": 3384,
  "\u0440": 3385,
  "\u2581chi\u1ebfu": 3386,
  "\u2581Li\u00ean": 3387,
  "\u2581m\u1ea3nh": 3388,
  "\u2581ng\u1ef1c": 3389,
  "\u2581\u597d\u554a": 3390,
  "\u4e00\u573a": 3391,
  "\u6cd5\u5f8b": 3392,
  "\u2581\u0111\u00e9o": 3393,
  "\u51e0\u4e2a": 3394,
  "\u2581And": 3395,
  "\u2581Kh\u1ec9": 3396,
  "\u2581\u7238": 3397,
  "\u4fdd\u8bc1": 3398,
  "\u7167\u7247": 3399,
  "\u2581tr\u00fang": 3400,
  "\u2581\u0111\u1ef1ng": 3401,
  "\u513f\u5b50": 3402,
  "\u7dad": 3403,
  "\u2581Thanh": 3404,
  "\u4ec0\u9ebd": 3405,
  "\u6068": 3406,
  "\u2581\u54c8": 3407,
  "\u56de\u7b54": 3408,
  "\u6c38\u8fdc": 3409,
  "\u2581C\u1ea7n": 3410,
  "\u2581\u5df2\u7ecf": 3411,
  "\u4e2d\u5fc3": 3412,
  "\u2581th\u1ea9m": 3413,
  "\u2581\u5abd\u5abd": 3414,
  "\u4e00\u4ef6\u4e8b": 3415,
  "\u8822": 3416,
  "\u2581Quan": 3417,
  "\u641e\u5b9a": 3418,
  "\u6709\u5f88\u591a": 3419,
  "\u8c08\u8c08": 3420,
  "\u2581r\u1eeda": 3421,
  "\u62d6": 3422,
  "\u2581ng\u00f3n": 3423,
  "\u6240\u6709\u4eba": 3424,
  "\u65ad": 3425,
  "\u6885": 3426,
  "\u258150": 3427,
  "\u7136": 3428,
  "\u2581lang": 3429,
  "\u2581\u6211\u53ea\u662f\u60f3": 3430,
  "\u5728\u9019\u5152": 3431,
  "\u6d88\u5931": 3432,
  "\u98db": 3433,
  "\u2581x\u00e2m": 3434,
  "\u5feb\u9ede": 3435,
  "\u4f11\u606f": 3436,
  "\u5e6b": 3437,
  "\u2581Alex": 3438,
  "\u2581b\u00e3i": 3439,
  "\u2581tr\u0103m": 3440,
  "\u2581\u90a3\u662f\u4ec0\u4e48": 3441,
  "\u2581Ti\u1ec3u": 3442,
  "\u2581l\u00e1t": 3443,
  "\u653e\u5728": 3444,
  "\u671d": 3445,
  "\ue0cb": 3446,
  "\u2581An": 3447,
  "\u51fa\u4e86": 3448,
  "\ue09e": 3449,
  "\u2581bia": 3450,
  "\u2581\u6211\u4eec\u5728": 3451,
  "\u4f55": 3452,
  "\u91ce": 3453,
  "\u00f3": 3454,
  "\u521d": 3455,
  "\u2581\u6211\u548c": 3456,
  "\u8aaa\u7684": 3457,
  "\u2581Xe": 3458,
  "\u517b": 3459,
  "\u7684\u540d\u5b57": 3460,
  "\u8cb7": 3461,
  "\u2581\u00e9p": 3462,
  "\u2581c\u00f3c": 3463,
  "\u2581ngang": 3464,
  "\u2581\u52a0\u6cb9": 3465,
  "\u544a\u8bc9": 3466,
  "\u62e5\u6709": 3467,
  "\u745f": 3468,
  "\u766c": 3469,
  "\u8eb2": 3470,
  "\u2581d\u1ea7n": 3471,
  "\u5e6b\u6211": 3472,
  "\u68d2": 3473,
  "\u7ad9\u5728": 3474,
  "\u591a\u4e86": 3475,
  "\u5bf9\u4e0d\u8d77": 3476,
  "\u5c0d\u6211": 3477,
  "\u7d72": 3478,
  "\u2581t\u00e2y": 3479,
  "\u2581\u0111i\u1ebfm": 3480,
  "\u4e00\u53ea": 3481,
  "\u6b72": 3482,
  "\u7ffb": 3483,
  "\u2581h\u1ed1i": 3484,
  "\u2581p": 3485,
  "\u2581th\u1ea5p": 3486,
  "\u2581\u8001\u5929": 3487,
  "z": 3488,
  "\u2581dung": 3489,
  "\u2581\u90a3\u5c31\u662f": 3490,
  "\u2581g\u1ea5p": 3491,
  "\u62dc": 3492,
  "\u76f8\u4fe1\u6211": 3493,
  "\u2581Ti\u1ec1n": 3494,
  "\u2581f": 3495,
  "\u5317": 3496,
  "\u592a\u591a": 3497,
  "\u6bba": 3498,
  "\u2581b\u1ed1n": 3499,
  "\u2581th\u00ed": 3500,
  "\u2581\u8b66\u5bdf": 3501,
  "\u2581\u5728\u6211": 3502,
  "\u7684\u4e00\u5207": 3503,
  "\u963b\u6b62": 3504,
  "\u2581tr\u00e0": 3505,
  "\u4e5f\u4f1a": 3506,
  "\u67b6": 3507,
  "J": 3508,
  "\u2581Ban": 3509,
  "\u2581\u800c\u662f": 3510,
  "\u65e7": 3511,
  "\u7537": 3512,
  "\u9000": 3513,
  "\u8fd9\u6b21": 3514,
  "\u2581\u5176\u5b9e": 3515,
  "\u9020": 3516,
  "\u2581\u8001": 3517,
  "\u2581Kh\u1ed1n": 3518,
  "\u2581\u522b\u62c5\u5fc3": 3519,
  "\u2581\u6211\u5df2\u7d93": 3520,
  "\u6b4c": 3521,
  "\u4e5f\u4e0d": 3522,
  "\u5f00\u8f66": 3523,
  "\u6709\u4ec0\u9ebc": 3524,
  "\u771f\u6b63": 3525,
  "\u2581ng\u01a1i": 3526,
  "\u2581\u7ea6\u7ff0": 3527,
  "\u6770": 3528,
  "\u96e8": 3529,
  "\u2581g\u01b0\u01a1ng": 3530,
  "\u2581\u6ca1\u5173\u7cfb": 3531,
  "\u83b1": 3532,
  "\u2581Nh\u1eadt": 3533,
  "\u662f\u4f60\u7684": 3534,
  "\u2581s\u1ee9": 3535,
  "\u5446": 3536,
  "\u821e": 3537,
  "\u2581\ue79e": 3538,
  "\u4ed6\u5abd\u7684": 3539,
  "\u6743": 3540,
  "\u842c": 3541,
  "\u8ddf\u5979": 3542,
  "\u5404\u4f4d": 3543,
  "\u89c1\u5230": 3544,
  "\u91cc\u7684": 3545,
  "\u9aa8": 3546,
  "\u9501": 3547,
  "\u2581V\u01b0\u01a1ng": 3548,
  "\u2581nhi\u1ec7t": 3549,
  "\u503c\u5f97": 3550,
  "\u8bf4\u8fc7": 3551,
  "\u2581S\u01b0": 3552,
  "\u6218\u6597": 3553,
  "\u2581c\u1ed5ng": 3554,
  "\u7aef": 3555,
  "\u89c6": 3556,
  "\u2581ho\u1ea1i": 3557,
  "\u534e": 3558,
  "\u548c\u5979": 3559,
  "\u6700\u540e": 3560,
  "\u8afe": 3561,
  "\u2581Th\u1eadm": 3562,
  "\u6f02\u4eae": 3563,
  "\u2581g\u00e1c": 3564,
  "\u72c2": 3565,
  "\u2581\u6211\u90fd": 3566,
  "\u53ef\u80fd\u4f1a": 3567,
  "\u2581mi\u1ec5n": 3568,
  "\u676f": 3569,
  "\u7279\u5de5": 3570,
  "\u739b": 3571,
  "ur": 3572,
  "\u2581d\u0169ng": 3573,
  "\u2581th\u00e1ch": 3574,
  "\u2581\u4f4f\u624b": 3575,
  "\u7cbe": 3576,
  "\u2581Ch\u1ee7": 3577,
  "\u2581th\u00e8m": 3578,
  "\u2581\u6211\u7231\u4f60": 3579,
  "\u665a": 3580,
  "\u7406\u89e3": 3581,
  "\u2581K\u1ef3": 3582,
  "\u2581t\u01a1": 3583,
  "\u2581\u8fd9\u662f\u4ec0\u4e48": 3584,
  "\u7edd": 3585,
  "\u9519\u4e86": 3586,
  "\u2581\u5f88\u62b1\u6b49": 3587,
  "\u5c0f\u5fc3": 3588,
  "\u80fd\u591f": 3589,
  "\u2581C\u00f9ng": 3590,
  "\u2581n\u1ea5u": 3591,
  "\u4eba\u7684": 3592,
  "\u77b7": 3593,
  "\u77e5\u9053\u4f60": 3594,
  "\u53ea\u8981": 3595,
  "\u571f": 3596,
  "\u623f\u95f4": 3597,
  "\u2581ch\u1ea5m": 3598,
  "\u548c\u5e73": 3599,
  "\u5967": 3600,
  "\u5c9b": 3601,
  "\u75f7": 3602,
  "\u7ec4": 3603,
  "\u2581kh\u1ea9n": 3604,
  "\u2581\u4e0d\u53ef\u80fd": 3605,
  "\u5834": 3606,
  "\u903c": 3607,
  "\u4e00\u5b9a\u8981": 3608,
  "\u2581\u4f60\u77e5\u9053\u5417": 3609,
  "\u96e2\u958b": 3610,
  "\u2581\u0111\u1ebfm": 3611,
  "\u5f15": 3612,
  "\u2581Dave": 3613,
  "\u2581K\u1ebft": 3614,
  "\u2581b\u1edd": 3615,
  "\u2581\u4f46\u662f\u4f60": 3616,
  "\u54ea\u91cc": 3617,
  "\u7cd6": 3618,
  "\u66ff": 3619,
  "\u68c0\u67e5": 3620,
  "\u2581\u4e0a\u5e1d": 3621,
  "\u5783\u573e": 3622,
  "\u9519\u8bef": 3623,
  "\u2581Th\u01b0\u1ee3ng": 3624,
  "\u2581d\u1ee9t": 3625,
  "\u2581n\u00e3y": 3626,
  "\u2581\u6211\u76f8\u4fe1": 3627,
  "\u5728\u4f60": 3628,
  "\u677f": 3629,
  "\u8ff7": 3630,
  "\u2581Thuy\u1ec1n": 3631,
  "\u2581V\u1ee5": 3632,
  "\u2581b\u1eaby": 3633,
  "\u2581\u0111\u1ec9nh": 3634,
  "\u2581treo": 3635,
  "\u2581\u56e0\u70ba\u6211": 3636,
  "\u2581\u5982\u679c\u6211\u4eec": 3637,
  "\u5b58": 3638,
  "\u8bad\u7ec3": 3639,
  "0": 3640,
  "\u70c2": 3641,
  "\u2581b\u1ebfp": 3642,
  "\u2581c\u0103ng": 3643,
  "\u2581\u4ed6\u4eec\u4f1a": 3644,
  "\u9ea6": 3645,
  "\u2581*": 3646,
  "\u2581\u6211\u4eec\u662f": 3647,
  "\u6740\u6b7b": 3648,
  "\u807d\u5230": 3649,
  "\u2581M\u1eb7t": 3650,
  "\u2581chai": 3651,
  "\u2581Th\u1eed": 3652,
  "\u2581are": 3653,
  "\u2581\u4f60\u6ca1\u4e8b\u5427": 3654,
  "\u2581\u6211\u6c92\u6709": 3655,
  "\u771f\u597d": 3656,
  "\u2581b\u1eadt": 3657,
  "\u2581Ki\u1ec3m": 3658,
  "\u2581ch\u1ee9a": 3659,
  "\u2581l\u00f9ng": 3660,
  "\u2581l\u0129nh": 3661,
  "\u2581l\u1ee1": 3662,
  "\u4e00\u5bb6": 3663,
  "\u63a5\u8fd1": 3664,
  "\u6760": 3665,
  "\u2581m": 3666,
  "\u2581N\u01b0\u1edbc": 3667,
  "\u2581Stark": 3668,
  "\u2581d\u01b0\u01a1ng": 3669,
  "\u2581l\u1ed9n": 3670,
  "\u2581\u4f60\u5230\u5e95": 3671,
  "\u82e5": 3672,
  "\u2581\u0111\u1ed3n": 3673,
  "\u4eae": 3674,
  "\u5979\u4eec": 3675,
  "\u4e82": 3676,
  "\u5a4a\u5b50": 3677,
  "\ue4c7\ue707": 3678,
  "\u2581\u6211\u53ea\u60f3": 3679,
  "\"?": 3680,
  "\u2581\u7ed9": 3681,
  "\u79f0": 3682,
  "\u8bb0\u5f55": 3683,
  "\u908a": 3684,
  "\u94ae": 3685,
  "\u2581g\u00f3c": 3686,
  "\u4ee5\u4e3a": 3687,
  "\u5225\u4eba": 3688,
  "\u5b83\u5011": 3689,
  "\u7806": 3690,
  "\u2581\u600e\u4e48\u56de\u4e8b": 3691,
  "\u6ca1\u9519": 3692,
  "\u731c": 3693,
  "\u5802": 3694,
  "\u2581hu\u1ea5n": 3695,
  "\u2581\u95ed\u5634": 3696,
  "v\u00e0": 3697,
  "\u2581ho\u1ea3ng": 3698,
  "\u2581\u5b89": 3699,
  "\u538b": 3700,
  "\u544a": 3701,
  "\u51fa\u751f": 3702,
  "\u6559\u6388": 3703,
  "\u66f4\u597d": 3704,
  "\u8003": 3705,
  "\u2581L\u00f9i": 3706,
  "\u2581\u6211\u4e0d\u6703": 3707,
  "\u2581doanh": 3708,
  "\u6709\u6ca1\u6709": 3709,
  "\u722c": 3710,
  "\u2581100": 3711,
  "\u2581ng\u1ea1i": 3712,
  "\u2581Mr": 3713,
  "\u4eba\u4eec": 3714,
  "\u4f19\u8ba1": 3715,
  "\u9694": 3716,
  "\u2581N\u1eb1m": 3717,
  "\u2581t\u00fay": 3718,
  "\u611f\u89ba": 3719,
  "\u2581c\u1edbm": 3720,
  "\u2581Ngh\u0129a": 3721,
  "\u2581vi\u00ea": 3722,
  "\u4e0b\u9762": 3723,
  "\u4fe1\u53f7": 3724,
  "\u4e0d\u8be5": 3725,
  "\ue6ce": 3726,
  "\u2581Tr\u1eeb": 3727,
  "\u50b3": 3728,
  "\u5bb6\u65cf": 3729,
  "\u6253\u5f00": 3730,
  "\u7e3d\u662f": 3731,
  "\u90fd\u4e0d": 3732,
  "\u2581La": 3733,
  "\u2581N\u00e0ng": 3734,
  "\u2581\u6211\u4eec\u5fc5\u987b": 3735,
  "\u814a": 3736,
  "\u8ecd": 3737,
  "\u2581L\u0169": 3738,
  "\u5e94": 3739,
  "\u4e45": 3740,
  "\u4eab\u53d7": 3741,
  "\u6218\u4e89": 3742,
  "\u642d": 3743,
  "\u9762\u524d": 3744,
  "t\u00f4i": 3745,
  "\u2581Jimmy": 3746,
  "\u2581L\u00e3o": 3747,
  "\u5f71": 3748,
  "\u90fd\u6ca1\u6709": 3749,
  "\ue6c7": 3750,
  "\u7236\u6bcd": 3751,
  "\u2581Vua": 3752,
  "w": 3753,
  "\u2581So": 3754,
  "\u2581\u90a3\u9ebc": 3755,
  "\u505a\u4ec0\u9ebc": 3756,
  "\u75af\u4e86": 3757,
  "\u2581ch\u00f4n": 3758,
  "\u2581s": 3759,
  "\u2581t\u1ed1ng": 3760,
  "\u2581\u6211\u60f3\u6211": 3761,
  "\u6b63\u5e38": 3762,
  "\u7684\u7537\u4eba": 3763,
  "\u90fd\u5728": 3764,
  "\u2581d\u1ea1o": 3765,
  "\u2581\u4f60\u548c": 3766,
  "\u7684\u65b9\u5f0f": 3767,
  "\u9760\u8fd1": 3768,
  "\u2581m\u00f9": 3769,
  "\u2581\u4e00\u5207\u90fd": 3770,
  "\u2581\u6211\u4eec\u9700\u8981": 3771,
  "\u523a": 3772,
  "\u8fd9\u4ef6\u4e8b": 3773,
  "\u9c81": 3774,
  "\u2581H\u00e0ng": 3775,
  "\u2581l\u1ee5c": 3776,
  "\u70b8\u5f39": 3777,
  "\u968a": 3778,
  "\u6162": 3779,
  "\u64d4\u5fc3": 3780,
  "\u7a81\u7136": 3781,
  "\u8ba9\u4ed6\u4eec": 3782,
  "\u2581nhi\u1ec5m": 3783,
  "\u649e": 3784,
  "\u706f": 3785,
  "\u56fd\u738b": 3786,
  "\u8bb0\u5f97": 3787,
  "\u2581\u4f60\u8fd8": 3788,
  "\u2581\u62ff": 3789,
  "\u2581Oliver": 3790,
  "\u4e00\u79cd": 3791,
  "\u2581li\u1ec1u": 3792,
  "\u5973\u513f": 3793,
  "\u2581\u5e94\u8be5": 3794,
  "\u533b\u9662": 3795,
  "\u5bc4": 3796,
  "\u7d27": 3797,
  "\u2581\u6ca1\u95ee\u9898": 3798,
  "\u65bd": 3799,
  "\u2581s\u00e1u": 3800,
  "\u2581thai": 3801,
  "\u3120": 3802,
  "\u4e3d": 3803,
  "\u5f00\u5fc3": 3804,
  "\u732a": 3805,
  "\u7576\u7136": 3806,
  "\",": 3807,
  "\u53cc": 3808,
  "\u6d3b\u7740": 3809,
  "\u81ea\u7136": 3810,
  "\u9ed1\u6697": 3811,
  "\u2581h\u1ecfa": 3812,
  "\u2581\u6770\u514b": 3813,
  "\u53d7\u5230": 3814,
  "\u9b54": 3815,
  "\u4ea7": 3816,
  "\u7b49\u7740": 3817,
  "\u2581S\u00e1ng": 3818,
  "\u2581go": 3819,
  "\u4e0d\u559c\u6b22": 3820,
  "\u4fe1\u606f": 3821,
  "\u6210\u4e86": 3822,
  "\u6df7": 3823,
  "\u72af\u7f6a": 3824,
  "\u5b83\u7684": 3825,
  "\u79c8": 3826,
  "\u53bb\u505a": 3827,
  "\u5b9e": 3828,
  "\u2581gi\u00e0nh": 3829,
  "\u2581th\u00f9ng": 3830,
  "\u2581\u597d\u50cf": 3831,
  "\u2581\u9084": 3832,
  "\u521a\u521a": 3833,
  "\u65e9\u5c31": 3834,
  "\u932f": 3835,
  "\u2581tr\u1ee9ng": 3836,
  "\u2581\u592a\u68d2\u4e86": 3837,
  "\u5c41\u80a1": 3838,
  "\u2581m\u01b0a": 3839,
  "\u2581v\u00e9": 3840,
  "\u4e00\u6761": 3841,
  "\u4e4b\u4e00": 3842,
  "\u5c0d\u4f60": 3843,
  "\u662f\u5417": 3844,
  "\u8b66\u5b98": 3845,
  "19": 3846,
  "\u2581B\u00e1o": 3847,
  "\u2581ng\u1eafn": 3848,
  "\u4e00\u5e74": 3849,
  "\u5ea7": 3850,
  "\u2581Joe": 3851,
  "\u2581h\u1ecda": 3852,
  "\u5173\u7cfb": 3853,
  "\u5229\u7528": 3854,
  "\u5438": 3855,
  "\u6210\u70ba": 3856,
  "\u653e\u4e0b": 3857,
  "\u770b\u5230\u4f60": 3858,
  "\u8fd8\u6d3b\u7740": 3859,
  "\u0435": 3860,
  "\u2581m\u00f4n": 3861,
  "\u5173\u4e8e": 3862,
  "ro": 3863,
  "\u2581\u6211\u89ba\u5f97": 3864,
  "\u7684\u5bb6\u4f19": 3865,
  "\u2581Tha": 3866,
  "\u2581\u4f60\u6700\u597d": 3867,
  "\u5377": 3868,
  "\u89c1\u8fc7": 3869,
  "\u2581k\u00ea": 3870,
  "\u4e00\u4ef6": 3871,
  "\u4e0d\u932f": 3872,
  "\u552f\u4e00\u7684": 3873,
  "\u2581\u6700\u540e": 3874,
  "\u738b\u5b50": 3875,
  "\u2581Mi": 3876,
  "\u2581V\u00f4": 3877,
  "\u2581\u6211\u5011\u6703": 3878,
  "\u2581\u6211\u6c92": 3879,
  "\u5728\u5916\u9762": 3880,
  "\u8ba1": 3881,
  "\u2581Kim": 3882,
  "\u2581kh": 3883,
  "\u2581\u0110\u1ea5t": 3884,
  "\u804a": 3885,
  "il": 3886,
  "\u2581\u867d\u7136": 3887,
  "\u7235\u58eb": 3888,
  "\u9999": 3889,
  "\u2581l\u01a1": 3890,
  "\u2581ng\u1ecdt": 3891,
  "\u2581\u0111\u1ee9c": 3892,
  "\u2581\u8fd9\u6b21": 3893,
  "\u4e0d\u660e\u767d": 3894,
  "\u7b28\u86cb": 3895,
  "\u2581Th\u00eam": 3896,
  "\u2581s\u00e0n": 3897,
  "\u4f46\u6211": 3898,
  "\u2581tuy\u00ean": 3899,
  "\u2581\ue652\ue145": 3900,
  "\u4ecd\u7136": 3901,
  "\u4f24\u5bb3": 3902,
  "\u6851": 3903,
  "\u75db\u82e6": 3904,
  "\u2581V\u00e0i": 3905,
  "\u770b\u8d77\u6765": 3906,
  "\u2581C\u00e2": 3907,
  "\u2581c\u1eafn": 3908,
  "\u2581khi\u00eau": 3909,
  "\u2581kh\u00f4": 3910,
  "\u2581with": 3911,
  "\u2581\u0110\u1eb9p": 3912,
  "\u2581\u6211\u731c": 3913,
  "\u4e8b\u4ef6": 3914,
  "\u60f3\u50cf": 3915,
  "\u751f\u610f": 3916,
  "\u2581Ho\u00e0n": 3917,
  "\u2581tr\u00f9ng": 3918,
  "\ue786": 3919,
  "li": 3920,
  "\u2581D\u1ea1": 3921,
  "\u2581here": 3922,
  "\u2581ph\u1ee9c": 3923,
  "\u2581\u0111\u0103ng": 3924,
  "\u0442": 3925,
  "\u2581\u6211\u4e00\u76f4": 3926,
  "\u72ec": 3927,
  "\u2581ni\u1ec7m": 3928,
  "\u2581\u1ee7ng": 3929,
  "*": 3930,
  "\u2581\u4e0d\u4f1a": 3931,
  "\u767c\u751f": 3932,
  "\u2581d\u00ec": 3933,
  "\u2581\u7d66\u6211": 3934,
  "v": 3935,
  "\u2581\u628a\u4ed6": 3936,
  "\u2581\u9a6c": 3937,
  "\u5c42": 3938,
  "\u62f3": 3939,
  "\u7ed9\u6211\u4eec": 3940,
  "\u8003\u8651": 3941,
  "\u82f1": 3942,
  "\u2581May": 3943,
  "\u2581bi\u00ean": 3944,
  "\u2581xu": 3945,
  "\u5584": 3946,
  "\u6709\u5173": 3947,
  "\u2581h\u00e2": 3948,
  "\u2581\u6211\u5011\u5f97": 3949,
  "\u7535\u5f71": 3950,
  "\u2581ph\u00f3": 3951,
  "\u5c06\u4f1a": 3952,
  "\u5f8b\u5e08": 3953,
  "\u627e\u6211": 3954,
  "son": 3955,
  "\u2581ch\u00ea": 3956,
  "\u2581\u6700": 3957,
  "\u4e0d\u9700\u8981": 3958,
  "\u5c0d\u5427": 3959,
  "\u97f3\u4e50": 3960,
  "\u2581Bob": 3961,
  "\u2581gi\u00e3n": 3962,
  "\u502b": 3963,
  "\u5411\u4f60": 3964,
  "\u5e72\u7684": 3965,
  "\u8d62": 3966,
  "\u8d76": 3967,
  "\u914d": 3968,
  "\ue66f\ue64e": 3969,
  "\u2581C\u1ea7m": 3970,
  "\u2581Ng\u1ee7": 3971,
  "\u2581#273;": 3972,
  "\u6311": 3973,
  "\u8db3": 3974,
  "\u6563": 3975,
  "\u66f8": 3976,
  "\u2581l\u01b0\u1ee3t": 3977,
  "\u2581m\u01b0u": 3978,
  "\u2581\u5c0d\u5427": 3979,
  "\u518d\u89c1": 3980,
  "\u5e26\u7740": 3981,
  "\u6eff": 3982,
  "ta": 3983,
  "\u2581Th\u00e1nh": 3984,
  "\u2581mi\u1ebfng": 3985,
  "\u2581nguy\u1ec1n": 3986,
  "\u2581t\u1ea3": 3987,
  "\u2581\u4f0a": 3988,
  "\u6a02": 3989,
  "\u2581\u542c\u6211\u8bf4": 3990,
  "\u60a8\u7684": 3991,
  "\u2581FBI": 3992,
  "\u529b\u91cf": 3993,
  "\u901a\u77e5": 3994,
  "man": 3995,
  "\u2581L\u1ebd": 3996,
  "\u2581\u1ea3o": 3997,
  "\u75bc": 3998,
  "\u8dd1\u4e86": 3999,
  "ne": 4000,
  "\u4f3c\u4e4e": 4001,
  "\u653e\u5f03": 4002,
  "\u2581d\u1ea7u": 4003,
  "\u2581s\u1ebb": 4004,
  "\u2581\u6211\u4eec\u8d70": 4005,
  "\u2581\u6ca1\u4ec0\u4e48": 4006,
  "\u547c\u5438": 4007,
  "\u8fd9\u4e00\u5207": 4008,
  "\u258118": 4009,
  "\u4e00\u628a": 4010,
  "\u7559\u5728": 4011,
  "\u8282": 4012,
  "\u786c": 4013,
  "\u96f6": 4014,
  "\u2581g\u1ea5u": 4015,
  "\u2581\u5168": 4016,
  "\u65b0\u95fb": 4017,
  "\u718a": 4018,
  "\u79bb\u5f00\u8fd9\u91cc": 4019,
  "\u8336": 4020,
  "\u2581don": 4021,
  "\u2581t\u00e1i": 4022,
  "\u5404": 4023,
  "\u662f\u771f\u7684": 4024,
  "\u7ea6\u7ff0": 4025,
  "kh\u00f4ng": 4026,
  "\u2581th\u1ea3o": 4027,
  "\u2581\u6211\u8981\u53bb": 4028,
  "\u6d1e": 4029,
  "\u7cbe\u795e": 4030,
  "\u2581b\u00e1m": 4031,
  "\u2581h\u1ed7": 4032,
  "\u2581m\u00e1t": 4033,
  "\u2581\u5c31\u7b97": 4034,
  "\u8868\u6f14": 4035,
  "\u2581\u51c6\u5907": 4036,
  "\u2581\u8be5": 4037,
  "\u64ca": 4038,
  "\u662f\u554a": 4039,
  "\u76d6": 4040,
  "\u662f\u4e3a\u4e86": 4041,
  "\u01ce": 4042,
  "\u2581m\u00f3c": 4043,
  "\u2581t\u00f9y": 4044,
  "\u770b\u5230\u4e86": 4045,
  "\u2581\u6211\u8ba4\u4e3a": 4046,
  "\u2581\u6709\u4ec0\u4e48": 4047,
  "\u2581\u82e5": 4048,
  "\u51fb": 4049,
  "\u58de": 4050,
  "\u5bb9\u6613": 4051,
  "\u600e\u9ebc\u8fa6": 4052,
  "\u8bc0": 4053,
  "\u9e21": 4054,
  "\u2581T\u01b0": 4055,
  "\u2581\u70ba\u4ec0\u4e48": 4056,
  "\u5e79\u561b": 4057,
  "\u5730\u7403": 4058,
  "\u578b": 4059,
  "\u8b1b": 4060,
  "\u2581\u1eeb": 4061,
  "\u2581\u5feb\u8dd1": 4062,
  "\u505a\u51fa": 4063,
  "\u7ed9\u5979": 4064,
  "\u8e22": 4065,
  "\u9152\u5427": 4066,
  "\u6c7a\u5b9a": 4067,
  "\u66f2": 4068,
  "\u6e29": 4069,
  "\u7b2c": 4070,
  "\u9078": 4071,
  "\u2581lui": 4072,
  "\u2581th\u1ed5i": 4073,
  "\u65b9\u6cd5": 4074,
  "\u9019\u4e48": 4075,
  "\u9019\u9ebc\u505a": 4076,
  "\u2581Al": 4077,
  "\u2581\u0110\u1eb7c": 4078,
  "\u2581\u4f60\u8aaa": 4079,
  "\u2581\u6216\u662f": 4080,
  "\u503c": 4081,
  "\u6211\u6709": 4082,
  "\u6211\u90fd": 4083,
  "\u6587\u4ef6": 4084,
  "\u7121\u6cd5": 4085,
  "\u7684\u5973\u5b69": 4086,
  "\u2581d\u1eb9p": 4087,
  "\u4e00\u76f4\u5728": 4088,
  "\u76d1\u72f1": 4089,
  "\u8ba9\u4eba": 4090,
  "\ue67b": 4091,
  "\u2581\u0111\u1eadu": 4092,
  "\u2581\u9019\u88e1": 4093,
  "\u5f0f": 4094,
  "\u7387": 4095,
  "\u5435": 4096,
  "ic": 4097,
  "\u2581U\u1ed1ng": 4098,
  "\u679c": 4099,
  "\u2581hi\u00ea": 4100,
  "\u2581\u653e": 4101,
  "\u673a\u5668": 4102,
  "\u8868\u793a": 4103,
  "\u8fa6": 4104,
  "\u9662": 4105,
  "\u2581b\u00f4": 4106,
  "\u2581\u6df7\u86cb": 4107,
  "\u5f7c\u6b64": 4108,
  "\u7231\u4f60": 4109,
  "us": 4110,
  "\u53eb\u4f60": 4111,
  "\u5728\u91cc\u9762": 4112,
  "\u63d2": 4113,
  "\u6c83": 4114,
  "\u2581\u4e3a": 4115,
  "\u6109\u5feb": 4116,
  "\u7435": 4117,
  "\u4ed6\u4e86": 4118,
  "\u6000\u7591": 4119,
  "\u8bb0": 4120,
  "\u2581B\u1ea3n": 4121,
  "\u2581\u4e5f\u8a31": 4122,
  "\u4f69": 4123,
  "\u8d1d": 4124,
  "\u2581Ok": 4125,
  "\u2581To\u00e0n": 4126,
  "\u2581\u90a3\u500b": 4127,
  "\u654c\u4eba": 4128,
  "\u2581ch\u0103": 4129,
  "\u2581\u0111\u1ea5m": 4130,
  "\u2581\u600e\u9ebc": 4131,
  "\u5bb9": 4132,
  "\u2581David": 4133,
  "\u2581gan": 4134,
  "\u2581\u4f46\u6211\u4eec": 4135,
  "\u2581\u6bcf": 4136,
  "\u2581\u9084\u662f": 4137,
  "\u64e6": 4138,
  "\u4e0d\u7ba1": 4139,
  "\u8001\u677f": 4140,
  "\u8ce3": 4141,
  "ol": 4142,
  "\u2581b\u1ea3ng": 4143,
  "\u2581\u770b\u6765": 4144,
  "\u50b7": 4145,
  "\u5e79": 4146,
  "\u6d4b\u8bd5": 4147,
  "\u7ad2": 4148,
  "\u7433": 4149,
  "\u866b": 4150,
  "\u8ba8\u538c": 4151,
  "\u8fd8\u8981": 4152,
  "\u2581Sinh": 4153,
  "\u2581\u54b1\u4eec": 4154,
  "\u6ca1\u4ec0\u4e48": 4155,
  "\u2581Wow": 4156,
  "\u2581did": 4157,
  "\u2581\u4f60\u5fc5\u987b": 4158,
  "\u2581\u4f60\u8bf4\u4ec0\u4e48": 4159,
  "\u2581\u5f53\u6211": 4160,
  "\u55ef": 4161,
  "\u5efa": 4162,
  "\u770b\u7740": 4163,
  "\u2581Mary": 4164,
  "\u2581\u4f60\u5462": 4165,
  "\u2581\u751a\u81f3": 4166,
  "\u2581b\u0103": 4167,
  "\u3002\"": 4168,
  "\u2581up": 4169,
  "\u52a8\u7269": 4170,
  "\u5e79\u4ec0\u9ebc": 4171,
  "\u9886": 4172,
  "\u2581\u6551\u547d": 4173,
  "\u58eb\u5175": 4174,
  "\u5931\u53bb\u4e86": 4175,
  "\u689d": 4176,
  "\u2581Ch\u1ea3": 4177,
  "\u6321": 4178,
  "\u70ae": 4179,
  "\u2581h\u1ea1ng": 4180,
  "\u60f9": 4181,
  "\u6781": 4182,
  "\u2581qu\u00ea": 4183,
  "\u2581s\u1eaft": 4184,
  "\u5728\u90a3\u513f": 4185,
  "\u642c": 4186,
  "\u6765\u81ea": 4187,
  "\u2581T\u1eadp": 4188,
  "\u2581m\u1ea1o": 4189,
  "\u5948": 4190,
  "\u786e\u5b9a": 4191,
  "\u563f": 4192,
  "\u57c3": 4193,
  "/": 4194,
  "\u2581Max": 4195,
  "\u53e6\u4e00": 4196,
  "\u5c0f\u65f6": 4197,
  "\u6253\u4e86": 4198,
  "\u6d3e\u5bf9": 4199,
  "\u9813": 4200,
  "\u2581nh\u1eafm": 4201,
  "\u2581\u4ec0\u4e48\u4e8b": 4202,
  "\u2581\u7ed9\u4f60": 4203,
  "\u2581\u904e\u4f86": 4204,
  "\u65c5\u884c": 4205,
  "\u2581Bi\u1ebfn": 4206,
  "\u2581Will": 4207,
  "\u2581\u4ed6\u5988\u7684": 4208,
  "\u2581\u6ca1\u4eba": 4209,
  "\u52b3": 4210,
  "\u6c92\u4e8b": 4211,
  "\u2581\u8fd9\u662f\u6211": 4212,
  "\u7b28": 4213,
  "\u754c": 4214,
  "\u8a08\u5283": 4215,
  "\u8f6e": 4216,
  "\u2581\u96f7": 4217,
  "\u54ac": 4218,
  "\u2581Qu\u00ean": 4219,
  "\u2581\u1eeam": 4220,
  "\u5546": 4221,
  "\u57fa\u5730": 4222,
  "\u2581c\u1ed1c": 4223,
  "\u2581out": 4224,
  "\u2581\u6211\u4eec\u90fd": 4225,
  "\u4ecd": 4226,
  "\u570b\u738b": 4227,
  "\u6539\u8b8a": 4228,
  "\u96c6": 4229,
  "\u2581\u67e5\u7406": 4230,
  "\u4e00\u5b9a\u662f": 4231,
  "\u505a\u4e86\u4ec0\u4e48": 4232,
  "\u525b": 4233,
  "\u8bcd": 4234,
  "ad": 4235,
  "\u2581b\u00e3o": 4236,
  "\u2581\u4e0d\u7136": 4237,
  "\u70df": 4238,
  "\u76ee": 4239,
  "\u79d2": 4240,
  "\u2581h\u00e9t": 4241,
  "\u526f": 4242,
  "\u6254": 4243,
  "\u80dc": 4244,
  "\u2581b\u00ea": 4245,
  "\u2581like": 4246,
  "\u2581tuy\u1ebft": 4247,
  "\u2581v\u1edd": 4248,
  "\u627e\u4e0d\u5230": 4249,
  "\u62a2": 4250,
  "\u9686": 4251,
  "\u2581h\u1ea3i": 4252,
  "\u2581m\u01b0\u1ee3n": 4253,
  "\u2581tr\u0103ng": 4254,
  "\u2581\u00c1": 4255,
  "\u4f11": 4256,
  "\u6628\u665a": 4257,
  "\u2581ng\u1ea7m": 4258,
  "\u2581\u5973\u58eb": 4259,
  "\u6bd2\u54c1": 4260,
  "lo": 4261,
  "\u2581Hi": 4262,
  "\u4e00\u6b65": 4263,
  "\u544a\u8a34": 4264,
  "\u5f37": 4265,
  "\u756b": 4266,
  "\u2581Ngo\u00e0i": 4267,
  "\u2581ch\u1ec9nh": 4268,
  "\u710a": 4269,
  "\u8ba9\u5979": 4270,
  "\u2581m\u1ea1ch": 4271,
  "\u2581\u4f60\u89ba\u5f97": 4272,
  "\u2581\u4f60\u9700\u8981": 4273,
  "\u9752": 4274,
  "\u2581r\u00e2": 4275,
  "\u2581tr\u00e1": 4276,
  "\u2581\u4ed6\u8981": 4277,
  "\u8f9b": 4278,
  "\u2581Lu\u00f4n": 4279,
  "\u2581\u6211\u662f\u8aaa": 4280,
  "\u7761\u89c9": 4281,
  "\u2581\u9577\u5b98": 4282,
  "\u7b49\u4e00\u4e0b": 4283,
  "\u8c61": 4284,
  "\u2581c\u1ea3i": 4285,
  "\u4e0d\u591f": 4286,
  "\u4fdd\u8b77": 4287,
  "\u5927\u5b66": 4288,
  "\u5f52": 4289,
  "\u610f\u601d": 4290,
  "\u6ed1": 4291,
  "\u2581\u4f60\u8fd8\u597d\u5417": 4292,
  "\u2581\u6c92\u4e8b": 4293,
  "\u60f3\u6cd5": 4294,
  "\u6cf0": 4295,
  "\u7b06": 4296,
  "\u8c22\u8c22\u4f60": 4297,
  "\u518d\u6b21": 4298,
  "\u2581ch\u00ecm": 4299,
  "\u2581L\u1ed1i": 4300,
  "\u2581Tuy": 4301,
  "\u2581\u597d\u597d": 4302,
  "\u6469": 4303,
  "\u2581Li\u1ec7u": 4304,
  "\u2581N\u1eef": 4305,
  "\u2581gh\u00e9": 4306,
  "\u2581okay": 4307,
  "\u2581\u4f60\u4e3a\u4ec0\u4e48": 4308,
  "\u2581\u9760": 4309,
  "\u4f4d\u7f6e": 4310,
  "\u5bb6\u4f19": 4311,
  "\u2581\u0111u\u00f4i": 4312,
  "\u671b": 4313,
  "\u6765\u5427": 4314,
  "\u73a1": 4315,
  "\u76e1": 4316,
  "\u8111": 4317,
  "\u2581m\u00f4i": 4318,
  "\u4ee4\u4eba": 4319,
  "\u8001\u5144": 4320,
  "\u2581Chi\u1ebfc": 4321,
  "\u2581Well": 4322,
  "\u2581k\u00ed": 4323,
  "\u2581\u0111a": 4324,
  "\u7236\u4eb2": 4325,
  "te": 4326,
  "\u2581l\u00f4ng": 4327,
  "\u2581\u4f60\u77e5\u9053\u7684": 4328,
  "\u2581\u7842\u740c": 4329,
  "\u529e\u516c\u5ba4": 4330,
  "\u8fd9\u6837\u7684": 4331,
  "X": 4332,
  "\u2581St": 4333,
  "\u2581gi\u00e1n": 4334,
  "\u6bd4\u4f60": 4335,
  "\u2581R\u1eb1ng": 4336,
  "\u2581\u6216\u8bb8": 4337,
  "\u8033": 4338,
  "\u901f": 4339,
  "\u252e": 4340,
  "\u2581l\u1ed3": 4341,
  "\u5728\u9019\u91cc": 4342,
  "\u5a01\u80c1": 4343,
  "\u6211\u4e0d": 4344,
  "\u96fb": 4345,
  "\u5728\u4e4e": 4346,
  "\u8a8d\u70ba": 4347,
  "\u2581all": 4348,
  "\u2581c\u1ea5m": 4349,
  "\u2581tr\u1ea7n": 4350,
  "\u4e0d\u61c2": 4351,
  "\u4e8b\u5b9e": 4352,
  "\u652f\u6301": 4353,
  "\u65b9\u9762": 4354,
  "\u72e6": 4355,
  "\u5c01": 4356,
  "\u90fd\u6ca1": 4357,
  "\u9f8d": 4358,
  "\u5f97\u5f88": 4359,
  "\u2581him": 4360,
  "\u65cf": 4361,
  "\u7ecf\u5e38": 4362,
  "\u8cbb": 4363,
  "\u2581ch\u00f3ng": 4364,
  "\u2581h\u1ed3ng": 4365,
  "\u2581\u672c": 4366,
  "\u516c\u4e3b": 4367,
  "\u62b1": 4368,
  "\u8001\u5927": 4369,
  "\u2581ch\u1edb": 4370,
  "\u529f": 4371,
  "\u66b4": 4372,
  "\u68a6": 4373,
  "\u968f": 4374,
  "\u2581\u1ea2nh": 4375,
  "\u2581\u5f53\u4f60": 4376,
  "\u559d\u9152": 4377,
  "\u5708": 4378,
  "\u75c5\u6bd2": 4379,
  "\u2581tr\u00ec": 4380,
  "\u2581\u00f3c": 4381,
  "\u5473": 4382,
  "\u770b\u89c1": 4383,
  "\u7ea6\u4f1a": 4384,
  "\u88ab\u4eba": 4385,
  "ho": 4386,
  "\u2581m\u00e2": 4387,
  "\u4e0a\u5e8a": 4388,
  "\u71b1": 4389,
  "\u7e77": 4390,
  "se": 4391,
  "\u2581nh\u1ee5c": 4392,
  "\u7d2f": 4393,
  "\u2581kh\u00f9ng": 4394,
  "\u4f60\u6709": 4395,
  "\u800c\u4e14": 4396,
  "\u970d": 4397,
  "\u2581\u0110\u00f4": 4398,
  "\u2581\u6216": 4399,
  "\u6bd4\u8f83": 4400,
  "\u2581\u0111\u1ea7n": 4401,
  "\u56de\u4f86\u4e86": 4402,
  "\u8fd8\u80fd": 4403,
  "em": 4404,
  "\u2581H\u01a1n": 4405,
  "\u2581K\u00e9o": 4406,
  "\u2581ch\u1edf": 4407,
  "\u2581d\u00e2m": 4408,
  "\u746a": 4409,
  "\u5403\u7684": 4410,
  "\u5716": 4411,
  "\u5728\u54ea\u5152": 4412,
  "\u6b7b\u53bb": 4413,
  "\u7684\u529b\u91cf": 4414,
  "\u9078\u64c7": 4415,
  "\u2581bu\u00f4n": 4416,
  "\u5f88\u6709": 4417,
  "\u652f": 4418,
  "\u2581K\u1ebf": 4419,
  "\u2581Lan": 4420,
  "\u4ed6\u5011\u7684": 4421,
  "\u7238": 4422,
  "C\u00f3": 4423,
  "\u2581That": 4424,
  "\u2581ch": 4425,
  "\u2581g\u00e3y": 4426,
  "\u2581k\u00edn": 4427,
  "\u60e0\u74b6": 4428,
  "\u67cf": 4429,
  "\u7fa4": 4430,
  "\u89c1\u9762": 4431,
  "\u9664": 4432,
  "\u2581Th\u00f4ng": 4433,
  "\u2581m\u0169": 4434,
  "\u2581m\u1ed9ng": 4435,
  "\u624b\u673a": 4436,
  "\u6709\u500b": 4437,
  "\u2581C\u00e2m": 4438,
  "\u2581Paris": 4439,
  "\u2581c\u1edfi": 4440,
  "\u4e00\u534a": 4441,
  "\u5750\u5728": 4442,
  "\u5920": 4443,
  "\u697c": 4444,
  "\u8b93\u4ed6": 4445,
  "\u2581V\u0169": 4446,
  "\u2581ph\u00e1o": 4447,
  "\u6c49": 4448,
  "\u2581li\u1ec1n": 4449,
  "\u6642\u9593": 4450,
  "\u67d0": 4451,
  "\u7f8a": 4452,
  "\u2581d\u1edf": 4453,
  "\u2581n\u00f4ng": 4454,
  "\u2581ph\u1ecfng": 4455,
  "\u2581\u0110\u01b0": 4456,
  "\u2581t\u1ed1n": 4457,
  "\u2581\u5173\u4e8e": 4458,
  "\u2581\u6211\u7684\u5929": 4459,
  "\u5e6b\u5fd9": 4460,
  "\u6211\u81ea\u5df1": 4461,
  "\u6717": 4462,
  "\u70b3": 4463,
  "st": 4464,
  "\u2581\u90a3\u91cc": 4465,
  "\u613f": 4466,
  "\u7528\u7684": 4467,
  "\u8fc7\u4e86": 4468,
  "\u996d": 4469,
  "\u6bd4\u6211": 4470,
  "\u81f3\u5c11": 4471,
  "11": 4472,
  "\u4e00\u5b9a\u4f1a": 4473,
  "\u51e1": 4474,
  "\u62ef\u6551": 4475,
  "\u2581t\u00e1ch": 4476,
  "\u600e\u9ebc\u4e86": 4477,
  "\u626f": 4478,
  "\u6700\u5927\u7684": 4479,
  "\u7684\u94b1": 4480,
  "\u258111": 4481,
  "\u2581kh\u00e1t": 4482,
  "\u4e3b\u610f": 4483,
  "\u6bba\u4e86": 4484,
  "\u7684\u6d88\u606f": 4485,
  "\u884c\u52d5": 4486,
  "\u2581b\u00e0y": 4487,
  "\u2581kem": 4488,
  "\u5927\u5bb6\u90fd": 4489,
  "\u6050\u6016": 4490,
  "\u2581\u0110\u1ea5y": 4491,
  "\u2581\u627e\u5230": 4492,
  "\u5f48": 4493,
  "\u5feb\u4e50": 4494,
  "\u75ad": 4495,
  "\u75c7": 4496,
  "\u2581m\u00ec": 4497,
  "\u2581\u4f60\u4e0d\u77e5\u9053": 4498,
  "\u2581\u522b\u8fd9\u6837": 4499,
  "\u547c": 4500,
  "\u2581\u6211\u770b": 4501,
  "\u8aaa\u904e": 4502,
  "es": 4503,
  "\u2581\u4e00\u500b": 4504,
  "\u2581\u4e8b\u60c5": 4505,
  "\u2581\u6211\u4eec\u6709": 4506,
  "\u6837": 4507,
  "\u8584": 4508,
  "\u2581m\u1ecfi": 4509,
  "\u5f53\u65f6": 4510,
  "\u2581kh\u1ed5ng": 4511,
  "\u2581phi\u00ean": 4512,
  "\u2581s\u1ef9": 4513,
  "\u5e7e": 4514,
  "\u2581\u00f4m": 4515,
  "\u2581\u53f2": 4516,
  "\u5750\u4e0b": 4517,
  "\u5e93": 4518,
  "\u6ca1\u4eba": 4519,
  "\u786e\u5b9e": 4520,
  "\u8fd0": 4521,
  "\u9023": 4522,
  "\u9152\u5e97": 4523,
  "\u2581h\u1eadn": 4524,
  "\u2581th\u1ea3i": 4525,
  "\u8aaa\u4e86": 4526,
  "\u9ad8\u5174": 4527,
  "40": 4528,
  "anh": 4529,
  "\u2581\u77a7": 4530,
  "\u2581\ue6d5": 4531,
  "\u4e4b\u95f4": 4532,
  "\u53bb\u770b": 4533,
  "\u5f02": 4534,
  "\u7684\u4e16\u754c": 4535,
  "\u81f4": 4536,
  "\u8fd9\u4e8b": 4537,
  "\u2581Kinh": 4538,
  "\u2581t\u00e2": 4539,
  "\u2581\u300c": 4540,
  "\u2581\u4f60\u6ca1": 4541,
  "\u543b": 4542,
  "\u6597": 4543,
  "\u2581\u4f60\u60f3\u8981": 4544,
  "\u2581\u6211\u4eec\u5c31": 4545,
  "\u2581\u6211\u5fc5\u987b": 4546,
  "\u2581\u70ba\u4e86": 4547,
  "\u5c31\u597d\u4e86": 4548,
  "\u6551\u4e86": 4549,
  "\u90a3\u513f": 4550,
  "\ue72f": 4551,
  "\u2581\u9996\u5148": 4552,
  "\u53d8\u5f97": 4553,
  "\u5821": 4554,
  "\u6000": 4555,
  "\u7f8e\u570b": 4556,
  "\u8f7b": 4557,
  "\u9ed1\u4eba": 4558,
  "\u62ff\u8d70": 4559,
  "\u8981\u6211": 4560,
  "\u2581\u6211\u53ea": 4561,
  "\u2581\u9019\u5c31\u662f": 4562,
  "\u5728\u90a3\u88e1": 4563,
  "\u590f": 4564,
  "\u7dda": 4565,
  "\u9019\u91cc": 4566,
  "\u2581h\u0103": 4567,
  "\u2581tr\u01b0\u01a1": 4568,
  "\u2581\u4f60\u8fd9": 4569,
  "\u4e0d\u53bb": 4570,
  "\u5fc5": 4571,
  "\u70ba\u4ec0\u4e48": 4572,
  "\u8cfd": 4573,
  "shad": 4574,
  "\u2581M\u00e3": 4575,
  "\u2581t\u00e1o": 4576,
  "\u2581\u6211\u9700\u8981\u4f60": 4577,
  "\u4e5f\u6703": 4578,
  "\u53d1\u73b0\u4e86": 4579,
  "\u672a\u6765": 4580,
  "\u76f8\u4fe1\u4f60": 4581,
  "\u90fd\u6703": 4582,
  "\u2581h\u00f2n": 4583,
  "\u2581man": 4584,
  "\u5f88\u5feb": 4585,
  "\u7075": 4586,
  "\u9177": 4587,
  "\u4e0d\u77e5": 4588,
  "\u5c06\u519b": 4589,
  "\u6076": 4590,
  "W": 4591,
  "\u2581m\u00f2": 4592,
  "\u2581\u4e34": 4593,
  "\u2581\u505c": 4594,
  "\u2581\u53bb\u5427": 4595,
  "\u7684\u90a3\u4e2a": 4596,
  "\u978b": 4597,
  "\u2581Ha": 4598,
  "\u2581W": 4599,
  "\u4e86\u4ed6": 4600,
  "\u4ec0": 4601,
  "\u5b50\u5f39": 4602,
  "\u6389\u4e86": 4603,
  "\u2581n\u01b0\u1edbng": 4604,
  "\u2581\u4e8c": 4605,
  "\u2581\u4eba\u4eec": 4606,
  "\u2581\u4f60\u81ea\u5df1": 4607,
  "\u4f60\u5011\u7684": 4608,
  "\u53e6\u4e00\u4e2a": 4609,
  "\u5916\u9762": 4610,
  "\u8fd9\u8fb9": 4611,
  "\u9032\u4f86": 4612,
  "\u9ed8": 4613,
  "\u2581\u5c31\u8fd9\u6837": 4614,
  "\u56e0\u70ba": 4615,
  "\u5927\u6982": 4616,
  "\u85a9": 4617,
  "\u2581D\u00f9ng": 4618,
  "\u519b\u961f": 4619,
  "\u5c31\u884c\u4e86": 4620,
  "\u6bd5": 4621,
  "\u6492": 4622,
  "\u6838": 4623,
  "\u8eab\u8fb9": 4624,
  "\u2581l\u00f9i": 4625,
  "\u2581tr\u00f4i": 4626,
  "\u2581\u1ee9c": 4627,
  "\u2581\u6211\u60f3\u8981": 4628,
  "\u6211\u4e0d\u80fd": 4629,
  "\u62d4": 4630,
  "\u7167\u987e": 4631,
  "\u7a32": 4632,
  "\u2581Ti\u1ebfng": 4633,
  "\u2581h\u00e8": 4634,
  "\u2581yeah": 4635,
  "\u2581\u5374": 4636,
  "\u8fd8\u4f1a": 4637,
  "\u2581m\u1ee5": 4638,
  "\u2581\u771f\u7684\u5417": 4639,
  "\u5565": 4640,
  "\u6293\u5230": 4641,
  "\u662f\u5bf9\u7684": 4642,
  "\u751f\u65e5": 4643,
  "\u9762\u5bf9": 4644,
  "\u2581S\u1eafp": 4645,
  "\u2581\u6211\u8aaa": 4646,
  "\u2581\u9019\u4e0d\u662f": 4647,
  "\u50bb\u74dc": 4648,
  "\u53ef\u80fd\u662f": 4649,
  "\u2581L\u00fd": 4650,
  "\u2581h\u00e8n": 4651,
  "\u2581x\u00f3a": 4652,
  "\u53bb\u54ea": 4653,
  "\u6316": 4654,
  "\u77ad\u89e3": 4655,
  "\u2581s\u00f3i": 4656,
  "\u2581x\u1ee9": 4657,
  "\u2581Th\u01b0": 4658,
  "\u2581t\u01b0\u1edbc": 4659,
  "\u86c7": 4660,
  "it": 4661,
  "\u2581ho": 4662,
  "\u2581\u0111\u1edbn": 4663,
  "\u6536\u62fe": 4664,
  "\u65b9\u5411": 4665,
  "\u751f\u5b58": 4666,
  "\u966a": 4667,
  "\u2581Gi\u00e1ng": 4668,
  "\u2581Sherlock": 4669,
  "\u2581got": 4670,
  "\u2581\u5feb\u53bb": 4671,
  "\u5b69\u5b50\u4eec": 4672,
  "\u64cd": 4673,
  "\u6ca1\u95ee\u9898": 4674,
  "\u7b54\u6848": 4675,
  "U": 4676,
  "\u2581Ah": 4677,
  "\u2581b\u00e0o": 4678,
  "\u56e2": 4679,
  "\u662f\u4ed6": 4680,
  "\u2581\u0111\u01b0": 4681,
  "\u6230\u722d": 4682,
  "\u627e\u5230\u4ed6": 4683,
  "\u653b\u64ca": 4684,
  "\u771f\u7684\u5f88": 4685,
  "\u2581\u4f60\u662f\u4e0d\u662f": 4686,
  "\u4e0a\u6765": 4687,
  "\u5899": 4688,
  "\u75af": 4689,
  "\u8bd5": 4690,
  "\u2581Ngh\u0129": 4691,
  "\u2581Paul": 4692,
  "\u2581S\u0129": 4693,
  "\u2581\u66f4": 4694,
  "\u2581\u8be5\u6b7b\u7684": 4695,
  "\u4e91": 4696,
  "\u5582": 4697,
  "\u5730\u72f1": 4698,
  "\u770b\u8fc7": 4699,
  "\u2581\u5c06": 4700,
  "\u2581\ue715": 4701,
  "\u8b66\u544a": 4702,
  "\u8ddf\u6211\u8bf4": 4703,
  "Ch\u00fang": 4704,
  "\u2581Ph\u1ee5": 4705,
  "\u2581\u4f60\u53bb": 4706,
  "\u2581\u5bf9\u5417": 4707,
  "\u4e4b\u5f8c": 4708,
  "\u5fd8\u8bb0": 4709,
  "\u5feb\u8d70": 4710,
  "\u7684\u65b9\u6cd5": 4711,
  "\u7e3d": 4712,
  "\u8bfe": 4713,
  "\u2581Ch\u00e0ng": 4714,
  "\u2581Finch": 4715,
  "\u2581H\u1ea7u": 4716,
  "\u2581\u800c\u4e0d\u662f": 4717,
  "\u4e0a\u6821": 4718,
  "\u53bb\u770b\u770b": 4719,
  "\u544a\u8bc9\u4ed6": 4720,
  "\u9ebb\u7169": 4721,
  "\u2581Y": 4722,
  "\u2581leo": 4723,
  "\u2581\u6211\u660e\u767d": 4724,
  "\u7716": 4725,
  "\u79c0": 4726,
  "\u8fd8\u6ca1\u6709": 4727,
  "\u2581\u4ec0\u4e48\u610f\u601d": 4728,
  "\u2581\u6ca1\u4e8b\u7684": 4729,
  "\u2581\u4f60\u53c8": 4730,
  "\u2581\u56e0\u6b64": 4731,
  "\u2581\u6c42\u6c42\u4f60": 4732,
  "\u4e3a\u6211": 4733,
  "\u5f88\u96be": 4734,
  "\u5fae": 4735,
  "\u2581get": 4736,
  "\u2581l\u01b0\u1ee1i": 4737,
  "\u2581\u9664\u975e": 4738,
  "\u7acb\u523b": 4739,
  "\u7ebd\u7ea6": 4740,
  "\u94a5\u5319": 4741,
  "\u9b6f": 4742,
  "V": 4743,
  "\u2581g\u1eafn": 4744,
  "\u2581\u9700\u8981": 4745,
  "\u65af\u57fa": 4746,
  "\u6b7b\u7684": 4747,
  "\u2581tr\u01b0\u1ee3t": 4748,
  "\u2581uh": 4749,
  "\u2581\u6211\u7684\u610f\u601d\u662f": 4750,
  "\u4eba\u5458": 4751,
  "\u5efa\u8bae": 4752,
  "\u600e\u4e48\u6a23": 4753,
  "\u9084\u6c92": 4754,
  "\u2581Bill": 4755,
  "\u2581\u1ea4n": 4756,
  "\u2581\u22bf": 4757,
  "\u2581\u4f60\u8ba4\u4e3a": 4758,
  "\u2581\u9a6c\u4e0a": 4759,
  "\u6740\u4e86\u4ed6": 4760,
  "\u4e39": 4761,
  "\u4eba\u985e": 4762,
  "\u7ed3\u679c": 4763,
  "\u2581us": 4764,
  "\u2581\u6ce8\u610f": 4765,
  "\u8d4c": 4766,
  "\u95ee\u4f60": 4767,
  "\u2581Khu": 4768,
  "\u2581\u6211\u8fd8": 4769,
  "\u5bc6\u7801": 4770,
  "\u6821": 4771,
  "\u6b27": 4772,
  "\u6b3e": 4773,
  "\u6bc1\u4e86": 4774,
  "\u7684\u4f4d\u7f6e": 4775,
  "\u9ec4": 4776,
  "\u2581Ch\u01a1i": 4777,
  "\u5e6b\u4f60": 4778,
  "\u7070": 4779,
  "ia": 4780,
  "\u2581ti\u1ec7m": 4781,
  "\u2581\u0110\u1eb7t": 4782,
  "\u2581\u4f60\u662f\u8c01": 4783,
  "\u5347": 4784,
  "\u9001\u4f60": 4785,
  "\u90a3\u908a": 4786,
  "\u2581\u8ba9\u4ed6": 4787,
  "\u5403\u996d": 4788,
  "\u627f\u8ba4": 4789,
  "14": 4790,
  "un": 4791,
  "\u2581Ph\u1ea7n": 4792,
  "\u4fdd\u8b49": 4793,
  "24": 4794,
  "\u2581c\u1ecf": 4795,
  "\u2581l\u1ea7u": 4796,
  "\u2581n\u1ea1": 4797,
  "\u2581r\u0169": 4798,
  "\u2581tr\u1ea1m": 4799,
  "\u2581\u96be\u9053": 4800,
  "\u4e3e": 4801,
  "\u65b9\u5f0f": 4802,
  "\u258140": 4803,
  "\u2581\u7576": 4804,
  "\u521a\u624d": 4805,
  "\u5341\u5206": 4806,
  "\u53eb\u505a": 4807,
  "\u2581Dan": 4808,
  "\u2581n\u00fat": 4809,
  "\u2581\u53cd\u6b63": 4810,
  "\u51c6\u5907\u597d": 4811,
  "\u5bf9\u4ed6": 4812,
  "\u600e\u4e48\u8bf4": 4813,
  "\u8d6b": 4814,
  "\u2581phe": 4815,
  "\u2581t\u1ee7": 4816,
  "\u2581\u5979\u5728": 4817,
  "\u5929\u4f7f": 4818,
  "\u6cbb\u7597": 4819,
  "\u70e6": 4820,
  "\u7d20": 4821,
  "\u2581H\u1eb9n": 4822,
  "\u2581\u770b\u5230": 4823,
  "\u4e5f\u8981": 4824,
  "\u5de8": 4825,
  "\u2581Don": 4826,
  "\u2581\u5c0f\u59d0": 4827,
  "\u2581\u90a3\u4e0d\u662f": 4828,
  "\u63a2": 4829,
  "\u65e9\u4e0a": 4830,
  "\u2581Ted": 4831,
  "\u2581ng\u1eef": 4832,
  "\u2581v\u1ed9i": 4833,
  "\u2581\u6211\u8ddf": 4834,
  "\u5bbe": 4835,
  "\u7ed3\u675f\u4e86": 4836,
  "\u2581l\u0103": 4837,
  "\u2581\u4e0d\u662f\u5417": 4838,
  "\u2581\u7f57": 4839,
  "\u4fe1\u4efb": 4840,
  "\u5f88\u5927": 4841,
  "\u600e\u4e48\u505a": 4842,
  "\u7997": 4843,
  "\ue61d": 4844,
  "18": 4845,
  "\u2581n\u00e2ng": 4846,
  "\u5e72\u6389": 4847,
  "\u60f3\u77e5\u9053": 4848,
  "\u675c": 4849,
  "\u7b49\u4f60": 4850,
  "\u90a3\u79cd": 4851,
  "\u2581But": 4852,
  "\u2581M\u1ee5c": 4853,
  "\u2581Nha": 4854,
  "\u2581Qu\u1ea3": 4855,
  "\u2581\u6211\u5011\u53ef\u4ee5": 4856,
  "\u2581\u91d1": 4857,
  "\u4e0a\u73ed": 4858,
  "\u6599": 4859,
  "\u80e1": 4860,
  "\u2581Th\u1ee7": 4861,
  "\u54e5\u54e5": 4862,
  "\u5e74\u8f7b": 4863,
  "na": 4864,
  "\u2581H\u1ed3i": 4865,
  "\u2581b\u00f4ng": 4866,
  "\u2581\u4e00\u65e6": 4867,
  "\u2581\u4f60\u4e0d\u4f1a": 4868,
  "\u529e\u6cd5": 4869,
  "\u5dee\u4e0d\u591a": 4870,
  "\u8fd9\u4e48\u591a": 4871,
  "\u9019\u6a23\u505a": 4872,
  "\u2581nh\u00e1t": 4873,
  "\u2581\u4ee5\u53ca": 4874,
  "\u2581\u4f60\u662f\u8bf4": 4875,
  "\u2581\u5c0f\u5b50": 4876,
  "\u4ec0\u4e48\u65f6\u5019": 4877,
  "\u7b2c\u4e8c": 4878,
  "\u2581Sarah": 4879,
  "\u2581n\u1ec1n": 4880,
  "\u2581pha": 4881,
  "\u2581\u5b83\u5011": 4882,
  "\u2581\u6211\u4f86": 4883,
  "\u5e74\u524d": 4884,
  "\u73af": 4885,
  "\u2581Chris": 4886,
  "\u2581\u53ef\u6211": 4887,
  "\u2581\u5728\u4f60": 4888,
  "\u6e56": 4889,
  "\u83b1\u8d63": 4890,
  "\u96e2": 4891,
  "\u2581T\u01b0\u1edbng": 4892,
  "\u2581\u5426\u5219": 4893,
  "\u2581\u65e9\u4e0a\u597d": 4894,
  "\u74dc": 4895,
  "\u2581d\u01b0": 4896,
  "\u2581m\u1ebfn": 4897,
  "\u2581\u4f60\u5c31\u662f": 4898,
  "//": 4899,
  "\u2581just": 4900,
  "\u4e4b\u4e2d": 4901,
  "\u5993\u5973": 4902,
  "\u5e78\u798f": 4903,
  "\u6770\u514b": 4904,
  "#243;": 4905,
  "\u2581Nick": 4906,
  "\u2581\u6628\u665a": 4907,
  "\u4e2d\u56fd": 4908,
  "\u4e5f\u4e0d\u662f": 4909,
  "\u4ed4": 4910,
  "\u514d": 4911,
  "\u6b66": 4912,
  "\u70b8": 4913,
  "\u70ba\u4f60": 4914,
  "\u723d": 4915,
  "\u7b97\u662f": 4916,
  "\u8d35": 4917,
  "ter": 4918,
  "\u2581thi\u00eau": 4919,
  "\u2581\u544a\u8a34\u6211": 4920,
  "\u2581\u56db": 4921,
  "\u2581\u5b8c\u5168": 4922,
  "\u2581\u624d": 4923,
  "\u2581\u8b93": 4924,
  "\u5947\u602a": 4925,
  "\u63d0\u5230": 4926,
  "\u7206": 4927,
  "h\u1ec9nh": 4928,
  "\u2581cam": 4929,
  "\u2581\u6211\u5011\u7684": 4930,
  "\u4e00\u540d": 4931,
  "\u662f\u70ba\u4e86": 4932,
  "\u7262": 4933,
  "\u2581Xu\u1ed1ng": 4934,
  "\u2581manh": 4935,
  "\u2581ph\u00e1i": 4936,
  "\u2581s\u1eefa": 4937,
  "\u2581\u5e76\u4e14": 4938,
  "\u2581\u7b2c\u4e00": 4939,
  "\u559d\u4e00\u676f": 4940,
  "\u2581Qu\u00fd": 4941,
  "\u2581\u0111i\u1ec7u": 4942,
  "\u2581\u4e8b\u5b9e\u4e0a": 4943,
  "\u2581\u7e7c\u7e8c": 4944,
  "\u5c3f": 4945,
  "\u6700\u8fd1": 4946,
  "ce": 4947,
  "\u2581T\u00e0u": 4948,
  "\u2581m\u1eadp": 4949,
  "\u2581th\u00f4": 4950,
  "\u2581\u591f\u4e86": 4951,
  "\u2581\u5f00\u59cb": 4952,
  "\u80fd\u4e0d\u80fd": 4953,
  "\u8bd5\u8bd5": 4954,
  "\u2581X": 4955,
  "\u2581ni\u00ean": 4956,
  "\u2581\u4e00\u5207": 4957,
  "\u5a18": 4958,
  "\u6f02\u4eae\u7684": 4959,
  "\u89e3\u91cb": 4960,
  "\u9019\u7a2e": 4961,
  "\u9f9f": 4962,
  "\u2581ng\u1ea9n": 4963,
  "\u4e0d\u4e00\u6837": 4964,
  "\u5230\u8fbe": 4965,
  "\u8be5\u6b7b\u7684": 4966,
  "\u0398": 4967,
  "\u2581kho\u1ebb": 4968,
  "\u2581m\u1ed3i": 4969,
  "\u5b8c\u7f8e": 4970,
  "\u5c4b": 4971,
  "\u66fe\u7ecf": 4972,
  "\u751a\u81f3": 4973,
  "\u767d\u75f4": 4974,
  "\u7bad": 4975,
  "\u2581co": 4976,
  "\u2581\u6211\u628a": 4977,
  "\u2581\u965b\u4e0b": 4978,
  "\u73b0\u573a": 4979,
  "\u857e": 4980,
  "\u90e8\u5206": 4981,
  "\u2581Lee": 4982,
  "\u2581\u0110\u1ed1i": 4983,
  "\u2581\u6069": 4984,
  "\u2581\u6211\u4e0d\u660e\u767d": 4985,
  "\u6559\u5802": 4986,
  "\u2581Gi\u1ea3i": 4987,
  "\u2581b": 4988,
  "\u2581ng\u1eafm": 4989,
  "\u2581quang": 4990,
  "\u2581\u4e5f\u662f": 4991,
  "\u5e6b\u52a9": 4992,
  "\u58f0\u97f3": 4993,
  "\u7684\u7167\u7247": 4994,
  "\u2581\u662f\u4ed6": 4995,
  "\u2581\ue6d4": 4996,
  "\u5609": 4997,
  "\u770b\u898b": 4998,
  "\u2581ch\u0103ng": 4999,
  "\u2581\u8fde": 5000,
  "\u59d1\u5a18": 5001,
  "\u751f\u7269": 5002,
  "\u7ae0": 5003,
  "\u864e": 5004,
  "\ue616": 5005,
  "\u2581nhi\u00ea": 5006,
  "\u2581one": 5007,
  "\u2581\u884c\u4e86": 5008,
  "\u7684\u6837\u5b50": 5009,
  "\u789e\u740c": 5010,
  "\u8eab\u4efd": 5011,
  "\u8eab\u4f53": 5012,
  "25": 5013,
  "\u2581C\u1ed9ng": 5014,
  "\u2581b\u1ecfng": 5015,
  "\u2581\u770b\u8d77\u6765": 5016,
  "\u4f60\u6703": 5017,
  "\u4f86\u8aaa": 5018,
  "\u628a\u6211\u4eec": 5019,
  "\u719f": 5020,
  "\u2581b\u1ee5i": 5021,
  "\u2581\u6211\u4eec\u73b0\u5728": 5022,
  "\u4f9b": 5023,
  "\u7535\u8111": 5024,
  "\u7684\u58f0\u97f3": 5025,
  "\u76ff": 5026,
  "\u8332": 5027,
  "\u2581g\u00f3i": 5028,
  "\u2581l\u00f2": 5029,
  "\u2581w": 5030,
  "\u5c0d\u4e0d\u8d77": 5031,
  "\u6cbb": 5032,
  "\u7591": 5033,
  "1000}": 5034,
  "13": 5035,
  "\u8bf7\u4f60": 5036,
  "\u2581d\u1ef1a": 5037,
  "\u2581ha": 5038,
  "\u2581kho\u00e1c": 5039,
  "\u2581quy\u1ec3n": 5040,
  "\u2581t\u1ecbch": 5041,
  "\u6302": 5042,
  "\u74e3": 5043,
  "16": 5044,
  "\u2581Ch\u00f3": 5045,
  "\u2581de": 5046,
  "\u2581h\u00f4i": 5047,
  "\u5173\u5fc3": 5048,
  "bord": 5049,
  "\u1ec5": 5050,
  "\u2581Kh\u00e1": 5051,
  "\u2581h": 5052,
  "\u2581k\u0129": 5053,
  "\u2581right": 5054,
  "\u2581\u53ef\u80fd\u662f": 5055,
  "\u2581Danny": 5056,
  "\u2581Y\u00eau": 5057,
  "\u2581\u674e": 5058,
  "\u6b0a": 5059,
  "\u81ea\u6740": 5060,
  "\u2581\u0111u\u1ed1i": 5061,
  "\u53cb": 5062,
  "\u5f97\u5230\u4e86": 5063,
  "\u6211\u4eec\u8981": 5064,
  "\u674e": 5065,
  "\u77e5\u9053\u4e86": 5066,
  "\u8c0b\u6740": 5067,
  "\u2581m\u1ea1n": 5068,
  "\u5410": 5069,
  "\u6212": 5070,
  "\u8bd5\u56fe": 5071,
  "\u2581m\u0103": 5072,
  "\u2581\u5728\u8fd9\u91cc": 5073,
  "\u4e22": 5074,
  "\u6aa2\u67e5": 5075,
  "\u7f3a": 5076,
  "\u8655\u7406": 5077,
  "\u53cd\u5e94": 5078,
  "\u554f\u984c": 5079,
  "\u2581d\u0129": 5080,
  "\u2581g\u1ed1c": 5081,
  "\u2581khu\u00f4n": 5082,
  "\u2581\u51fa\u53bb": 5083,
  "\u5954": 5084,
  "\u7b80\u5355": 5085,
  "\u2581C\u1ea7u": 5086,
  "\u2581L\u1edd": 5087,
  "\u2581bar": 5088,
  "\u2581\u4ed6\u4e0d\u662f": 5089,
  "\u2581\u6c42\u4f60": 5090,
  "\u5c3c\u514b": 5091,
  "\u804c": 5092,
  "\u2581b\u1ed1c": 5093,
  "\u2581\u0111\u00edt": 5094,
  "\u80d6": 5095,
  "\u8f93": 5096,
  "\u2581b\u1ed3": 5097,
  "\u2581\u597d\u5566": 5098,
  "\u2581\u5b83\u662f": 5099,
  "\u2581\u8fd9\u91cc\u662f": 5100,
  "\u55ae": 5101,
  "\u5f97\u4e86": 5102,
  "\u62dc\u6258": 5103,
  "\u731b": 5104,
  "\u7b49\u5f85": 5105,
  "\u2581V\u1eeba": 5106,
  "\u2581b\u1ea3": 5107,
  "\u2581m\u1ed3": 5108,
  "\u2581t\u01b0\u01a1i": 5109,
  "\u2581\u83ab": 5110,
  "\u8b93\u6211\u5011": 5111,
  "\u2581\u5373\u4f7f": 5112,
  "\u2581\u7d04\u7ff0": 5113,
  "\u4e5f\u6ca1": 5114,
  "\u5176\u5b9e": 5115,
  "\u5230\u6211": 5116,
  "\u6ce1": 5117,
  "\ue057": 5118,
  "\u258119": 5119,
  "\u2581\u64cd": 5120,
  "\u4e0d\u50cf": 5121,
  "\u4f9d": 5122,
  "\u5728\u627e": 5123,
  "\u5fd8": 5124,
  "\u6263": 5125,
  "\u6628\u5929": 5126,
  "\u2581ki\u00ean": 5127,
  "\u2581li\u1ec7t": 5128,
  "\u5929\u624d": 5129,
  "\u5cbf": 5130,
  "\u624d\u4f1a": 5131,
  "\u8d62\u4e86": 5132,
  "\u2581d\u00f2": 5133,
  "\u2581kh\u00f4n": 5134,
  "\u2581x\u00f3m": 5135,
  "\u5922": 5136,
  "\u677e": 5137,
  "\u83ef": 5138,
  "\u90fd\u80fd": 5139,
  "\u9b54\u6cd5": 5140,
  "\u2581b\u00f3p": 5141,
  "\u2581chi\u00ea": 5142,
  "\u6b7b\u4eba": 5143,
  "\u7c89": 5144,
  "\u9489": 5145,
  "\u2581\u800c\u4e14\u6211": 5146,
  "\u6751": 5147,
  "\u7cfb": 5148,
  "\u8001\u5e08": 5149,
  "\u8aaa\u4ec0\u9ebc": 5150,
  "\u4e0d\u51c6": 5151,
  "\u5bb6\u91cc": 5152,
  "\u7d05": 5153,
  "\u9f50": 5154,
  "Con": 5155,
  "\u2581th\u00e1p": 5156,
  "\u2581\u5e72\u561b": 5157,
  "\u4e00\u904d": 5158,
  "\u54cd": 5159,
  "\u7b14": 5160,
  "\u2581\u5927\u4eba": 5161,
  "\u2581\u670b\u53cb": 5162,
  "\u4f60\u4e5f": 5163,
  "\u5976": 5164,
  "\u5c31\u5f97": 5165,
  "\u6c38\u9060": 5166,
  "\u86cb\u7cd5": 5167,
  "\u8d8a\u6765\u8d8a": 5168,
  "\u4e00\u5f20": 5169,
  "\u7ebf\u7d22": 5170,
  "\u80fd\u529b": 5171,
  "\ue4c9": 5172,
  "ine": 5173,
  "\u2581h\u01b0\u01a1ng": 5174,
  "\u2581tho\u1ea3ng": 5175,
  "\u2581\u627e": 5176,
  "\u2581\u6709\u4e9b": 5177,
  "\u4ef7": 5178,
  "\u51c6": 5179,
  "\u79c1": 5180,
  "\u8131": 5181,
  "\u8bc1\u636e": 5182,
  "\u2581\u6bd4\u5982": 5183,
  "\u2581\u7231": 5184,
  "\u4e00\u5757": 5185,
  "\u4e0d\u6562": 5186,
  "\u5168\u90fd": 5187,
  "\u5f35": 5188,
  "\u9ea5": 5189,
  "\ue019\ue5ee": 5190,
  "\u03c1": 5191,
  "\u2581H\u1ed3ng": 5192,
  "\u2581\u8fd9\u79cd": 5193,
  "\u526a": 5194,
  "\u9189": 5195,
  "\u9e97": 5196,
  "\u2581hung": 5197,
  "\u2581\u77e5\u9053\u4e86": 5198,
  "\u4ec0\u4e48\u7684": 5199,
  "\u7edd\u5bf9": 5200,
  "\u8fa8": 5201,
  "\u2581Gi\u1ecfi": 5202,
  "\u2581th\u1eadp": 5203,
  "\u2581x\u00edch": 5204,
  "\u2581\u600e\u4e48\u6837": 5205,
  "\u544a\u8bc9\u6211\u4eec": 5206,
  "\u732b": 5207,
  "\u8ddf\u4f60\u8bf4": 5208,
  "0}": 5209,
  "\u2581d\u00e3": 5210,
  "\u2581\u6211\u73fe\u5728": 5211,
  "\u2581\u8c05\u8c05": 5212,
  "\u4e92\u76f8": 5213,
  "\u5236\u9020": 5214,
  "\u67ef": 5215,
  "\u6848\u5b50": 5216,
  "\u70e7": 5217,
  "\u7535\u89c6": 5218,
  "\u770b\u4e0d\u5230": 5219,
  "\u788e": 5220,
  "\u2581Kho\u1ea3ng": 5221,
  "\u2581M\u1ea5t": 5222,
  "\u2581c\u01b0\u1ee3c": 5223,
  "\u2581\u6050\u6015": 5224,
  "\u2581\u65e2\u7136": 5225,
  "\u2581\u7b49\u6211": 5226,
  "\u2581\u9ed1": 5227,
  "\u5b9d": 5228,
  "\u6211\u53bb": 5229,
  "\u770b\u6211": 5230,
  "\u786e\u8ba4": 5231,
  "\u5c38\u4f53": 5232,
  "\u82f1\u56fd": 5233,
  "\ue6e4": 5234,
  "\u2581\u4f19\u8ba1\u4eec": 5235,
  "\u5fc5\u9808": 5236,
  "\u624b\u4e0a": 5237,
  "\u7532": 5238,
  "\u90a3\u4e48\u591a": 5239,
  "#7871;": 5240,
  "im": 5241,
  "\u4e0d\u5f97\u4e0d": 5242,
  "\u7559\u4e0b\u6765": 5243,
  "\u7684\u8def": 5244,
  "\u8d3a": 5245,
  "\u2581h\u00ea": 5246,
  "\u2581\u4ed6\u4eec\u662f": 5247,
  "\u4e0d\u559c\u6b61": 5248,
  "\u5a5a": 5249,
  "\u6211\u5f97": 5250,
  "\u6ca1\u6cd5": 5251,
  "\u901f\u5ea6": 5252,
  "\u2581b\u00e9o": 5253,
  "\u2581l\u1ee3n": 5254,
  "\u54e1": 5255,
  "\u5927\u7684": 5256,
  "\u600e\u4e48\u56de\u4e8b": 5257,
  "\u7406\u7531": 5258,
  "\u822a": 5259,
  "\u82cf": 5260,
  "\u2581cu\u00f4": 5261,
  "\u2581tuy\u1ebfn": 5262,
  "\u2581\u5988": 5263,
  "\u2581\u5abd\u7684": 5264,
  "\u2581\u660e\u767d": 5265,
  "\u5370": 5266,
  "\u53e5": 5267,
  "\u5907": 5268,
  "\u6211\u4e0d\u60f3": 5269,
  "\u670d\u52a1": 5270,
  "\u770b\u8d77\u4f86": 5271,
  "17": 5272,
  "ca": 5273,
  "\u2581Jake": 5274,
  "\u2581Lu\u1eadt": 5275,
  "\u50cf\u4e2a": 5276,
  "\u53d7\u4f24": 5277,
  "\u55e8": 5278,
  "\u5c31\u4e0d\u4f1a": 5279,
  "\u8981\u662f": 5280,
  "\u8bf4\u4f60": 5281,
  "hi": 5282,
  "\u2581Henry": 5283,
  "\u5371\u96aa": 5284,
  "\u6709\u8da3": 5285,
  "\u90fd\u53ef\u4ee5": 5286,
  "\u5206\u9418": 5287,
  "\u542c\u7740": 5288,
  "\u5bf9\u5417": 5289,
  "\u780d": 5290,
  "\u7a0b\u5e8f": 5291,
  "\u83b7\u5f97": 5292,
  "\u2581hu\u1ed1ng": 5293,
  "\u2581\u4f60\u628a": 5294,
  "\u2581\u52a0": 5295,
  "\u2581\u65b0": 5296,
  "\u574f\u4e86": 5297,
  "\u653b": 5298,
  "\u90a3\u5929": 5299,
  "\u2581c\u01b0\u01a1ng": 5300,
  "\u2581\u5bf9\u4e86": 5301,
  "\u2581\u6211\u4ee5\u4e3a": 5302,
  "\u2581\u6211\u559c\u6b61": 5303,
  "\u2581\u6211\u771f": 5304,
  "\u75af\u72c2": 5305,
  "C\u00f4": 5306,
  "\\4": 5307,
  "\u2581Hi\u1ec7p": 5308,
  "\u2581Steve": 5309,
  "\u2581ch\u1ecdc": 5310,
  "\u2581gi\u1ee1n": 5311,
  "\u4e5f\u4e0d\u4f1a": 5312,
  "\u542c\u6211\u8bf4": 5313,
  "\u5e78\u8fd0": 5314,
  "\u6613": 5315,
  "\u727a\u7272": 5316,
  "\u770b\u4f60": 5317,
  "\u2581d\u00e2u": 5318,
  "\u2581m\u1ea1c": 5319,
  "\u2581\u4f60\u5df2\u7ecf": 5320,
  "\u2581\u8001\u7238": 5321,
  "\u2581\u8981\u6211": 5322,
  "\u4e00\u4f1a\u513f": 5323,
  "\u653f": 5324,
  "\u73b0": 5325,
  "\u8001\u9f20": 5326,
  "\ue783": 5327,
  "\u2581Gi\u01a1": 5328,
  "\u2581lan": 5329,
  "\u2581\u0110\u00f3ng": 5330,
  "\u5019": 5331,
  "\u66ff\u6211": 5332,
  "\u6746": 5333,
  "\u6b63\u5f0f": 5334,
  "\ue66f": 5335,
  "\u2581her": 5336,
  "\u2581th": 5337,
  "\u2581\u5f00": 5338,
  "\u2581\u9ad8": 5339,
  "\u5b89\u5a1c": 5340,
  "\u793c\u7269": 5341,
  "\u7e3d\u7d71": 5342,
  "\u2581\u4f60\u6c92\u4e8b\u5427": 5343,
  "\u2581\u628a\u5b83": 5344,
  "\u2581\u6b22\u8fce": 5345,
  "\u53ef\u4e0d\u662f": 5346,
  "\u54b1\u4eec": 5347,
  "\u558a": 5348,
  "\u58a8\u897f\u54e5": 5349,
  "\u7236": 5350,
  "\u2581\u0111\u1ea1p": 5351,
  "\u2581\u533b\u751f": 5352,
  "\u2581\u6211\u5f88\u597d": 5353,
  "\u4e00\u676f": 5354,
  "\u6211\u53ea\u662f": 5355,
  "\u2581C\u00fat": 5356,
  "\u2581Qua": 5357,
  "\u2581t\u1edfm": 5358,
  "\u2581v\u00e2y": 5359,
  "\u2581\u4f60\u8fd9\u4e2a": 5360,
  "\u2581\u8b93\u6211\u5011": 5361,
  "\u4e0d\u5fc5": 5362,
  "\u5177": 5363,
  "\u51ef": 5364,
  "\u6211\u4e0d\u662f": 5365,
  "\u6eab": 5366,
  "\u7761\u89ba": 5367,
  "\u77e5\u9053\u6211": 5368,
  "\u7aa5": 5369,
  "\u7ed1": 5370,
  "\u2581\u0110\u1ee9a": 5371,
  "\u2581\u6b63": 5372,
  "\u4e86\u5f88\u591a": 5373,
  "\u653e\u4e86": 5374,
  "\u7530": 5375,
  "\u80f8": 5376,
  "\u9019\u5152": 5377,
  "\u95f9": 5378,
  "\ue707\ue145": 5379,
  "\u2581Th\u00e2": 5380,
  "\u2581\u6211\u4eec\u5df2\u7ecf": 5381,
  "\u4e5f\u6ca1\u6709": 5382,
  "\u505a\u4e8b": 5383,
  "\u575a\u6301": 5384,
  "\u592a\u597d\u4e86": 5385,
  "\u5e72\u51c0": 5386,
  "\u654c": 5387,
  "\u78b0\u5230": 5388,
  "\u8001\u7238": 5389,
  "\u898b\u5230": 5390,
  "\u2581Charles": 5391,
  "\u2581th\u00e1o": 5392,
  "\u2581\u6240\u6709\u7684": 5393,
  "\u63db": 5394,
  "\u7f6a\u72af": 5395,
  "Em": 5396,
  "\u2581TV": 5397,
  "\u2581\u89aa\u611b\u7684": 5398,
  "\u653f\u6cbb": 5399,
  "\u7d27\u5f20": 5400,
  "r\u1edf": 5401,
  "\u2581Anna": 5402,
  "\u2581b\u1eafc": 5403,
  "\u4f1a\u6709": 5404,
  "\u4f60\u4e0d\u80fd": 5405,
  "\u53ea\u4f1a": 5406,
  "\u5bf9\u4ed8": 5407,
  "\u6c64": 5408,
  "\u6d3b\u52a8": 5409,
  "\u964d\u843d": 5410,
  "\u2581Carl": 5411,
  "\u2581kh\u00e1ng": 5412,
  "\u2581l\u1eb7n": 5413,
  "\u2581ph\u1eabu": 5414,
  "\u2581r\u1eafn": 5415,
  "\u2581v\u00e1y": 5416,
  "\u5389\u5bb3": 5417,
  "\u6298\u78e8": 5418,
  "\u82f1\u91cc": 5419,
  "\ue117": 5420,
  "\u2581x\u00f4": 5421,
  "\u2581\u5176\u5be6": 5422,
  "\u4ed6\u4f1a": 5423,
  "\u665a\u9910": 5424,
  "\u9644\u8fd1": 5425,
  "\u2581Nh\u1ea5t": 5426,
  "\u2581they": 5427,
  "\u2581\u8b1d\u8b1d": 5428,
  "\u4f1a\u88ab": 5429,
  "\u78ba\u5b9a": 5430,
  "\u7eb8": 5431,
  "\u80fd\u627e\u5230": 5432,
  "\u2581Billy": 5433,
  "\u2581at": 5434,
  "\u2581heo": 5435,
  "\u2581ng\u1edb": 5436,
  "\u2581\u0111\u00e0ng": 5437,
  "\u2581\u4e00\u76f4": 5438,
  "\u8377": 5439,
  "\u95ed\u5634": 5440,
  "\u2581nghi\u1ec7n": 5441,
  "\u2581th\u1ed1i": 5442,
  "\u2581\u6709\u4e2a": 5443,
  "\u4e09\u4e2a": 5444,
  "\u51fa\u6765\u4e86": 5445,
  "\u5883": 5446,
  "\u7834\u574f": 5447,
  "\u9003\u8dd1": 5448,
  "de": 5449,
  "\u2581truy\u1ec7n": 5450,
  "\u2581\u0110i\u1ec7n": 5451,
  "\u60f3\u60f3": 5452,
  "\u8c0b\u7714": 5453,
  "\u2581n\u1ee5": 5454,
  "\u62dc\u8088": 5455,
  "\u9910": 5456,
  "\u7684\u5b89\u5168": 5457,
  "\u2581Whoa": 5458,
  "\u2581\u0110\u1ecba": 5459,
  "\u2581\u6211\u6ca1\u4e8b": 5460,
  "\u4e0d\u5e94\u8be5": 5461,
  "\u6709\u4e86": 5462,
  "\u2581Doug": 5463,
  "\u2581g\u1edfi": 5464,
  "\u2581\u53ea\u8981\u4f60": 5465,
  "\u4eba\u751f": 5466,
  "\u4ece\u672a": 5467,
  "\u7ec8\u4e8e": 5468,
  "\u9a91": 5469,
  "bo": 5470,
  "\u2581b\u1ed3i": 5471,
  "\u2581\u4f60\u600e\u4e48\u77e5\u9053": 5472,
  "\u2581\u6211\u4eec\u4e0d\u80fd": 5473,
  "\u5272": 5474,
  "\u5bfb\u627e": 5475,
  "\u5de7": 5476,
  "\u7981": 5477,
  "\u90a3\u88e1": 5478,
  "\u9759": 5479,
  "da": 5480,
  "\u2581xoay": 5481,
  "\u2581\u5982\u679c\u4f60\u60f3": 5482,
  "\u2581\u6211\u4fdd\u8bc1": 5483,
  "\u5169\u500b": 5484,
  "\u5929\u554a": 5485,
  "\u5ba2\u4eba": 5486,
  "\u62d2\u7edd": 5487,
  "\u63a2\u5458": 5488,
  "\u6865": 5489,
  "\u75c5\u4eba": 5490,
  "\u2581k\u1ec7": 5491,
  "\u2581\u4e94": 5492,
  "\u2581\ue707\ue145": 5493,
  "\u6709\u6c92\u6709": 5494,
  "\u2581tr\u1eebng": 5495,
  "\u2581\u5750\u4e0b": 5496,
  "\u2581\u5979\u4eec": 5497,
  "\u2581\u7ed3\u679c": 5498,
  "\u4e0d\u662f\u5417": 5499,
  "\u52bf": 5500,
  "\u8abf\u67e5": 5501,
  "\u2581tr\u00f2n": 5502,
  "\u2581\u6211\u7684\u5929\u554a": 5503,
  "\u4e00\u7247": 5504,
  "\u4e4c": 5505,
  "\u606f": 5506,
  "\u845b": 5507,
  "\u95ee\u6211": 5508,
  "\u2581ah": 5509,
  "\u2581k\u00e9m": 5510,
  "\u2581mi\u1ec1n": 5511,
  "\u2581v\u00e3i": 5512,
  "\u5176\u5b83": 5513,
  "\u5feb\u6a02": 5514,
  "\u624b\u6307": 5515,
  "\u2581\u6709\u6ca1\u6709": 5516,
  "\u8001\u5a46": 5517,
  "\u9818": 5518,
  "\ue679": 5519,
  "\u2581gi\u00e1p": 5520,
  "\u5c0a\u91cd": 5521,
  "\u8231": 5522,
  "\u8425": 5523,
  "\u932f\u4e86": 5524,
  "#225;": 5525,
  "\u2581H\u1ea3i": 5526,
  "\u2581nh\u1ea3m": 5527,
  "\u4e3a\u4f55": 5528,
  "\u6709\u6240": 5529,
  "\u9748": 5530,
  "\u2581\u4f46\u5979": 5531,
  "\u620f": 5532,
  "\u662f\u4ec0\u4e48\u610f\u601d": 5533,
  "\u2581Hi\u1ec7n": 5534,
  "\u2581ng\u0169": 5535,
  "\u2581\u4ee5\u524d": 5536,
  "\u4e0d\u4e0a": 5537,
  "\u4ec0\u4e48\u4e8b": 5538,
  "\u4f6c": 5539,
  "\u767d\u4eba": 5540,
  "\u8b80": 5541,
  "\u8db3\u591f": 5542,
  "\u2581L\u00e2u": 5543,
  "\u2581V\u00e2": 5544,
  "\u2581l\u00e9n": 5545,
  "\u2581tr\u01a1": 5546,
  "\u2581\u6211\u5011\u9700\u8981": 5547,
  "\u4ee5\u70ba": 5548,
  "\u51fa\u6765\u7684": 5549,
  "\u559c": 5550,
  "\u5835": 5551,
  "\u2581\u0110\u1eb1ng": 5552,
  "\u8b49\u660e": 5553,
  "\u8bf4\u6211": 5554,
  "\u2581\u5df2\u7d93": 5555,
  "\u2581\u6211\u5011\u8d70": 5556,
  "\u2581\u6211\u5e0c\u671b\u4f60": 5557,
  "\u2581\u6211\u7ed9\u4f60": 5558,
  "\u2581\u884c": 5559,
  "\u59b9": 5560,
  "\ue5e6\ue5fb": 5561,
  "\u2581T\u1eed": 5562,
  "\u2581\u4f60\u6ca1\u6709": 5563,
  "\u5c31\u884c": 5564,
  "\u8b8a\u6210": 5565,
  "\u2581Ti\u00ean": 5566,
  "\u5e26\u8d70": 5567,
  "\u6267\u884c": 5568,
  "\u82ac": 5569,
  "\u82b1\u4e86": 5570,
  "\u9192": 5571,
  "\u2581Robert": 5572,
  "\u2581nh\u1ed1t": 5573,
  "\u5988": 5574,
  "\u6216\u8bb8": 5575,
  "\u6c92\u932f": 5576,
  "\u8bc1": 5577,
  "\u94f6": 5578,
  "ir": 5579,
  "\u2581\u8fd9\u662f\u4e2a": 5580,
  "\u4e00\u822c": 5581,
  "\u6d0b": 5582,
  "\u7d04": 5583,
  "\u7ea7": 5584,
  "\u8fd9\u4e2a\u4eba": 5585,
  "\u2581B\u00e0i": 5586,
  "\u2581Mexico": 5587,
  "\u2581x\u1ea1": 5588,
  "\u2581\u6211\u4ee5\u524d": 5589,
  "\u53c3\u52a0": 5590,
  "\u66b4\u529b": 5591,
  "\u7b49\u6211": 5592,
  "\u7ed9\u4ed6\u4eec": 5593,
  "\u8bbd": 5594,
  "\u2581Thomas": 5595,
  "\u2581now": 5596,
  "\u2581think": 5597,
  "\u2581\u4ed6\u5011\u6703": 5598,
  "\u2581\u54c8\u5229": 5599,
  "\u2581\u6211\u5011\u662f": 5600,
  "\u6492\u8c0e": 5601,
  "\u65af\u5766": 5602,
  "\u70e4": 5603,
  "\u9084\u5728": 5604,
  "dy": 5605,
  "\u2581k\u1eb9o": 5606,
  "\u2581t\u00ea": 5607,
  "\u2581\u6211\u4e0d\u8981": 5608,
  "\u2581\u6211\u611b\u4f60": 5609,
  "\u2581\u6c92\u4eba": 5610,
  "\u5230\u5904": 5611,
  "\u5f88\u4e45": 5612,
  "\u5f88\u6f02\u4eae": 5613,
  "\u77e5\u9053\u4ed6": 5614,
  "\u800d": 5615,
  "\u805a": 5616,
  "\u81ea\u6211": 5617,
  "\ue5f5": 5618,
  "\u2581\u7c73": 5619,
  "\u2581\u90a3\u6211\u4eec": 5620,
  "\u4e00\u8d77\u53bb": 5621,
  "\u524d\u9762": 5622,
  "\u72e5": 5623,
  "\u94a1": 5624,
  "\u2581\u0111\u0129a": 5625,
  "\u2581\u5e2e\u6211": 5626,
  "\u2581\u6d77": 5627,
  "\u4e8c\u5341": 5628,
  "\u6709\u591a\u5c11": 5629,
  "\u7684\u5927": 5630,
  "\u8a18": 5631,
  "\u2581\u4ed6\u6709": 5632,
  "\u2581\u6211\u6b63\u5728": 5633,
  "\u522e": 5634,
  "\u5fae\u8f6f": 5635,
  "\u60e1": 5636,
  "\u68ee\u6797": 5637,
  "\u6e96\u5099": 5638,
  "\u58f9": 5639,
  "\u6211\u7238": 5640,
  "\u6b50": 5641,
  "\u79df": 5642,
  "\u2581\u1ed5": 5643,
  "\u62a4": 5644,
  "\u6750": 5645,
  "\u6ca1\u5173\u7cfb": 5646,
  "\u7684\u611f\u89c9": 5647,
  "\u8179": 5648,
  "\u9b5a": 5649,
  "20\\": 5650,
  "at": 5651,
  "\u2581m\u00e3n": 5652,
  "\u2581\u0435": 5653,
  "\u2581\u7678": 5654,
  "\u5f7c\u5f97": 5655,
  "\u627e\u4e2a": 5656,
  "\u76d8": 5657,
  "is": 5658,
  "\u2581D\u01b0\u01a1ng": 5659,
  "\u2581ki\u00ea": 5660,
  "\u4e5f\u80fd": 5661,
  "\u5728\u9019\u88cf": 5662,
  "\u7ec3": 5663,
  "\u9709": 5664,
  "and": 5665,
  "\u2581nh\u00ed": 5666,
  "\u2581\u5927\u6982": 5667,
  "\u2581\u8db4\u4e0b": 5668,
  "\u4e00\u5468": 5669,
  "\u5c1d\u8bd5": 5670,
  "\u6211\u4eec\u4f1a": 5671,
  "\u75af\u5b50": 5672,
  "\u8a9e": 5673,
  "\u96c7": 5674,
  "Y": 5675,
  "di": 5676,
  "et": 5677,
  "\u2581Tony": 5678,
  "\u2581tri": 5679,
  "\u2581\u73b0\u5728\u4f60": 5680,
  "\u2581\u807d\u6211\u8aaa": 5681,
  "\u2581\u8bf7\u4f60": 5682,
  "\u4e0d\u4ecb\u610f": 5683,
  "\u4e0d\u80af": 5684,
  "\u4e1a": 5685,
  "\u4e9b\u4ec0\u4e48": 5686,
  "\u70ba\u4e86": 5687,
  "\u7f8e\u5143": 5688,
  "\u8d95": 5689,
  "am": 5690,
  "\u2581Tommy": 5691,
  "\u2581tu": 5692,
  "\u2581\u6700\u8fd1": 5693,
  "\u52a8\u624b": 5694,
  "\u5931\u8d25": 5695,
  "\u2581h\u1ed7n": 5696,
  "\u2581\u4efb\u4f55": 5697,
  "\u2581\u505c\u4e0b": 5698,
  "\u30cd": 5699,
  "\u5152\u5b50": 5700,
  "\u5212": 5701,
  "\u6b20": 5702,
  "\u6d6a": 5703,
  "\u8bf4\u4ed6": 5704,
  "\u90e8\u961f": 5705,
  "\u96fb\u8a71": 5706,
  "\u2581t\u00f2": 5707,
  "\u2581v\u00ed": 5708,
  "\u2581\u00e2n": 5709,
  "\u2581\u80af\u5b9a": 5710,
  "\u505a\u7684\u4e8b": 5711,
  "\u62ff\u7740": 5712,
  "\u65e5\u672c": 5713,
  "\u6709\u4e8b": 5714,
  "\u9060": 5715,
  "\u03a9": 5716,
  "\u2581\u1ed1m": 5717,
  "\u4f5c\u4e3a": 5718,
  "\u5199\u7684": 5719,
  "\u5c45\u7136": 5720,
  "\u778e": 5721,
  "h\u1eafc": 5722,
  "um": 5723,
  "\u2581Di": 5724,
  "\u2581g": 5725,
  "\u4e5f\u4e0d\u80fd": 5726,
  "\u56de\u5bb6\u4e86": 5727,
  "\u5e2d": 5728,
  "\u2581Mark": 5729,
  "\u59bb\u5b50": 5730,
  "\u5c3e": 5731,
  "\u6295\u964d": 5732,
  "\u2581D\u1eady": 5733,
  "\u2581Jane": 5734,
  "\u2581g\u1ee3i": 5735,
  "\u2581kho\u00e1": 5736,
  "\u2581\u6211\u88ab": 5737,
  "\u79c1\u4eba": 5738,
  "\u8ba4": 5739,
  "\u8d85\u7ea7": 5740,
  "\u2581D\u00ec": 5741,
  "\u2581T\u1ec7": 5742,
  "\u2581want": 5743,
  "\u79fb\u52a8": 5744,
  "\u2581d\u00e1ng": 5745,
  "\u2581quy\u1ebfn": 5746,
  "\u2581v\u1ecf": 5747,
  "\u4e86\u4e00\u4e2a": 5748,
  "\u4e86\u6211\u7684": 5749,
  "\u6076\u9b54": 5750,
  "\u6bcd\u4eb2": 5751,
  "\u8f7d": 5752,
  "3300}": 5753,
  "\u5b63": 5754,
  "\u5c24": 5755,
  "\u65b7": 5756,
  "\u673a\u5668\u4eba": 5757,
  "\u721b": 5758,
  "\u8d63": 5759,
  "!\"": 5760,
  "\u2581x\u0103ng": 5761,
  "\u2581\u4ed6\u8aaa": 5762,
  "\u2581\u5409\u59c6": 5763,
  "\u2581\u8ba9\u4f60": 5764,
  "\u4f4f\u4e86": 5765,
  "\u5f15\u64ce": 5766,
  "\u6559\u4f60": 5767,
  "\u6a5f\u6703": 5768,
  "\u9019\u9ebc\u8aaa": 5769,
  "\u9f20": 5770,
  "FFFF": 5771,
  "\u2581\u73b0\u5728\u6211": 5772,
  "\u4f60\u5f97": 5773,
  "\u552f\u4e00": 5774,
  "\u592a\u591a\u4e86": 5775,
  "\u5f88\u6709\u8da3": 5776,
  "\u6f22": 5777,
  "\u770b\u5230\u4ed6": 5778,
  "\u8ba8\u8bba": 5779,
  "\u8ddf\u8e2a": 5780,
  "ul": 5781,
  "\u2581m\u00e9t": 5782,
  "\u2581\u4f60\u8ddf": 5783,
  "\u2581\u5012": 5784,
  "\u2581\u522b\u52a8": 5785,
  "\u2581\u6211\u5c31\u77e5\u9053": 5786,
  "\u2581\u8ddf\u6211": 5787,
  "\u51fa\u53d1": 5788,
  "\u5e26\u6765": 5789,
  "\u8ddf\u7740": 5790,
  "\u2581\u4e0d\u4e0d\u4e0d": 5791,
  "\u2581\u9589\u5634": 5792,
  "\u2581\ue6d6": 5793,
  "\u6740\u624b": 5794,
  "\u6b32": 5795,
  "\u7bb1": 5796,
  "\u2581C\u00e1": 5797,
  "\u2581v\u1eefng": 5798,
  "\u2581\u0111\u1ed3i": 5799,
  "\u2581\u4ed6\u5c31": 5800,
  "\u2581\u4f60\u600e\u9ebc": 5801,
  "\u5564\u9152": 5802,
  "\u624e": 5803,
  "\u2581C\u00fa": 5804,
  "\u2581t\u00e0ng": 5805,
  "\u2581\u4f60\u8981\u662f": 5806,
  "\u505a\u8fc7": 5807,
  "\u5192\u9669": 5808,
  "\u60f3\u8c61": 5809,
  "\u6293\u4f4f": 5810,
  "\u65f6\u5019": 5811,
  "\u662f\u56e0\u4e3a": 5812,
  "\u9019\u4ef6\u4e8b": 5813,
  "ln": 5814,
  "\u2581N\u00ea": 5815,
  "\u2581g\u1ee5c": 5816,
  "\u2581t\u1ef7": 5817,
  "\u2581\u65e9\u5b89": 5818,
  "\u515a": 5819,
  "\u5173\u95ed": 5820,
  "\u53d1\u5c04": 5821,
  "\u70c8": 5822,
  "\u751f\u6c14": 5823,
  "\u89aa": 5824,
  "\u2581thi\u1ebfp": 5825,
  "\u2581x\u00e9": 5826,
  "\u2581\u0110": 5827,
  "\u2581\u77b7": 5828,
  "\u52de": 5829,
  "\u5728\u6211\u7684": 5830,
  "\u57ce\u5821": 5831,
  "\u6218\u58eb": 5832,
  "\u627e\u51fa": 5833,
  "\u662f\u600e\u4e48": 5834,
  "\u96d9": 5835,
  "\u2581b\u00e1u": 5836,
  "\u2581l\u00f3t": 5837,
  "\u2581thi\u1ec7p": 5838,
  "\u2581\u628a\u4f60\u7684": 5839,
  "\u4ea4\u7ed9": 5840,
  "\u4eb2\u81ea": 5841,
  "\u4f60\u7684\u540d\u5b57": 5842,
  "\u6771": 5843,
  "\u6bb5": 5844,
  "\u7691": 5845,
  "\ue6a7": 5846,
  "\u2581see": 5847,
  "\u706b\u8f66": 5848,
  "\u72d7\u5c4e": 5849,
  "\u7948\u7977": 5850,
  "\u8d5a": 5851,
  "\u2581Eddie": 5852,
  "\u2581Lo\u1ea1i": 5853,
  "\u2581tr\u1ee5c": 5854,
  "\u2581\u4ed6\u4eec\u5728": 5855,
  "\u2581\u6211\u4e5f\u4e0d\u77e5\u9053": 5856,
  "\u760b\u4e86": 5857,
  "\u7684\u60c5\u51b5": 5858,
  "\u84dd": 5859,
  "\u2581kh\u1ed1i": 5860,
  "\u2581\u56e0\u70ba\u4f60": 5861,
  "\u53d1\u751f\u4e86": 5862,
  "\u5728\u6b64": 5863,
  "\u6bcf\u5929": 5864,
  "\u7684\u623f\u5b50": 5865,
  "\u2581but": 5866,
  "\u2581them": 5867,
  "\u2581nh\u01a1": 5868,
  "\u2581\u897f": 5869,
  "\u73a9\u5177": 5870,
  "\u7684\u65e5\u5b50": 5871,
  "\u7f51": 5872,
  "\u90fd\u77e5\u9053": 5873,
  "B\u1ee9c": 5874,
  "\u2581ghen": 5875,
  "\u2581\u0110\u00e0n": 5876,
  "\u4e0d\u51fa": 5877,
  "\u5b9d\u5b9d": 5878,
  "\u5e76\u4e0d\u662f": 5879,
  "\u6a39": 5880,
  "\u76ee\u524d": 5881,
  "\u90a3\u4e48\u505a": 5882,
  "\u2581San": 5883,
  "\u2581n\u01b0\u01a1ng": 5884,
  "\u2581\u65e0\u8bba": 5885,
  "\u4e0d\u5f97": 5886,
  "\u5d14": 5887,
  "\u5eb7": 5888,
  "\u662f\u8fd9\u6837": 5889,
  "\u7a97": 5890,
  "\u8d85\u8fc7": 5891,
  "\u2581ti\u00eam": 5892,
  "\u4ed6\u5728": 5893,
  "\u6eda": 5894,
  "\u8abf": 5895,
  "\u8c46": 5896,
  "\u2581\u6211\u521a": 5897,
  "\u5c3a\u8227": 5898,
  "\u80a5": 5899,
  "\u8209": 5900,
  "\u8303": 5901,
  "\u8bf4\u660e": 5902,
  "\u9019\u908a": 5903,
  "\u90a3\u5152": 5904,
  "\u98de\u884c": 5905,
  "\u2581Long": 5906,
  "\u2581cu\u1ed3ng": 5907,
  "\u2581c\u1ed7": 5908,
  "\u2581\u0111\u1ec1n": 5909,
  "\u2581\u5230\u5e95": 5910,
  "\u2581\u5750": 5911,
  "\u2581\u76ee\u524d": 5912,
  "\u4e49": 5913,
  "\u5206\u4eab": 5914,
  "\u5f92": 5915,
  "\u7684\u786e": 5916,
  "\u81c9": 5917,
  "\u8328": 5918,
  "\u8bb8": 5919,
  "\u990a": 5920,
  "\u2581di\u1ec7u": 5921,
  "\u2581m\u1ec1m": 5922,
  "\u2581\u4e3a\u4ec0\u4e48\u4e0d": 5923,
  "\u2581\u4f60\u73fe\u5728": 5924,
  "\u2581\u77e5\u9053\u5417": 5925,
  "\u4e00\u5207\u90fd": 5926,
  "\u6210\u529f\u4e86": 5927,
  "\u663e\u793a": 5928,
  "as": 5929,
  "\u2581ng\u00f4n": 5930,
  "\u2581\u6240\u4ee5\u6211\u4eec": 5931,
  "\u53ea\u662f\u4e2a": 5932,
  "\u9488": 5933,
  "#": 5934,
  "\u2581C\u1eeda": 5935,
  "\u2581Tim": 5936,
  "\u2581Y\u00ean": 5937,
  "\u2581cu": 5938,
  "\u2581c\u1ee9t": 5939,
  "\u2581kh\u00f3i": 5940,
  "\u2581\u6ca1\u6709\u4eba": 5941,
  "\u4e00\u767e": 5942,
  "\u9080\u8bf7": 5943,
  "...\"": 5944,
  "\u2581\u56e0\u4e3a\u4ed6": 5945,
  "\u4e25\u91cd": 5946,
  "\u5176\u4e2d": 5947,
  "\u6062\u590d": 5948,
  "\u6211\u7236\u4eb2": 5949,
  "\u662f\u55ce": 5950,
  "\u8d28": 5951,
  "\u9020\u6210": 5952,
  "\u258114": 5953,
  "\u2581b\u1ef1": 5954,
  "\u2581kh\u00edch": 5955,
  "\u2581than": 5956,
  "\u2581\u4f60\u786e\u5b9a": 5957,
  "\u4e00\u6bb5": 5958,
  "\u4e3b\u4eba": 5959,
  "\u5c31\u8fd9\u6837": 5960,
  "\u5e76\u6ca1\u6709": 5961,
  "\u61c9": 5962,
  "\u6839\u672c": 5963,
  "\u6b62": 5964,
  "\u6e9c": 5965,
  "\u79bb\u5f00\u4e86": 5966,
  "\u8fd9\u4e00\u70b9": 5967,
  "\u8ffd\u8e2a": 5968,
  "\u9547": 5969,
  "\ue12a": 5970,
  "%": 5971,
  "ick": 5972,
  "\u2581\u4ed6\u662f\u4e2a": 5973,
  "\u2581\u4ed6\u6703": 5974,
  "\u505a\u7231": 5975,
  "\u5e9f": 5976,
  "\u8be5\u600e\u4e48\u529e": 5977,
  "\u2581Walter": 5978,
  "\u2581\u8fd9\u8fb9": 5979,
  "\u5230\u4f60": 5980,
  "\u60e8": 5981,
  "\u62fc": 5982,
  "\u66ff\u4f60": 5983,
  "\u76ee\u7684": 5984,
  "\u7701": 5985,
  "\u7f57\u9a6c": 5986,
  "\u987a": 5987,
  "FF": 5988,
  "ry": 5989,
  "sh": 5990,
  "\u2581\u4e0d\u8fc7\u6211": 5991,
  "\u2581\u6211\u5011\u5728": 5992,
  "\u4e0a\u6b21": 5993,
  "\u51e0\u4e4e": 5994,
  "\u592a\u68d2\u4e86": 5995,
  "\u5979\u5011": 5996,
  "\u9589\u5634": 5997,
  "\u2581l\u1ea1y": 5998,
  "\u2581\u5f7c\u5f97": 5999,
  "\u2581\u770b\u4f86": 6000,
  "\u5df2\u7ecf\u6b7b\u4e86": 6001,
  "\u7f62": 6002,
  "\u900f": 6003,
  "\u2581Nh\u1ea3y": 6004,
  "\u2581d\u01b0\u1eddng": 6005,
  "\u2581giai": 6006,
  "\u2581need": 6007,
  "\u52a9": 6008,
  "\u6253\u6211": 6009,
  "\u77f3\u5934": 6010,
  "\u791a": 6011,
  "\u2022": 6012,
  "\u2581B\u1ec7nh": 6013,
  "\u2581ung": 6014,
  "\u2581\u4f60\u5148": 6015,
  "\u2581\u4f60\u559c\u6b22": 6016,
  "\u2581\u6700\u597d": 6017,
  "\u597d\u7b11": 6018,
  "\u6740\u4e86\u6211": 6019,
  "\u7518": 6020,
  "\u8056": 6021,
  "\u8c22": 6022,
  "\u9577\u5b98": 6023,
  "c\u00f3": 6024,
  "ff": 6025,
  "\u2581v\u1ee9t": 6026,
  "\u2581\u6ce2": 6027,
  "\u4e5f\u8a31": 6028,
  "\u611f\u8c22": 6029,
  "\\1": 6030,
  "\u2581B\u00e1nh": 6031,
  "\u4e3a\u4ec0\u4e48\u8981": 6032,
  "\u6e05\u7406": 6033,
  "\u7d27\u6025": 6034,
  "\u888b": 6035,
  "\u8fd8\u4e0d": 6036,
  "200": 6037,
  "pe": 6038,
  "\u2581ch\u00e2u": 6039,
  "\u2581c\u1ed9t": 6040,
  "\u2581nh\u00e0ng": 6041,
  "\u2581v\u1ea7y": 6042,
  "\u2581\u6211\u4eec\u5e94\u8be5": 6043,
  "\u2581\u9019\u662f\u4ec0\u9ebc": 6044,
  "\u4ed6\u5988": 6045,
  "\u544a\u8bc9\u5979": 6046,
  "\u54ea\u513f": 6047,
  "\u592a\u7a7a": 6048,
  "\u5bcc": 6049,
  "\u6ca1\u529e\u6cd5": 6050,
  "\u7f16": 6051,
  "\u8fd9\u5c31\u662f": 6052,
  "\u2581su\u1ea5t": 6053,
  "\u2581\u4e0d\u7ba1\u4f60": 6054,
  "\u523a\u6fc0": 6055,
  "\u68a6\u60f3": 6056,
  "\u2581\u7b97\u4e86": 6057,
  "\u4e0d\u7b97": 6058,
  "\u584a": 6059,
  "\u5b66\u751f": 6060,
  "\u5b78\u6821": 6061,
  "\u7684\u673a\u4f1a": 6062,
  "\u7684\u8840": 6063,
  "\u76db": 6064,
  "\u89c2": 6065,
  "\u8d0f": 6066,
  "\u9f3b\u5b50": 6067,
  "100": 6068,
  "co": 6069,
  "mo": 6070,
  "\u2581Kevin": 6071,
  "\u2581\u5bf9\u4e8e": 6072,
  "\u4e54": 6073,
  "\u5386\u53f2": 6074,
  "\u5718": 6075,
  "\u601d\u8003": 6076,
  "\u6050\u60e7": 6077,
  "\u7ed9\u4f60\u4eec": 6078,
  "\u2581Maria": 6079,
  "\u2581th\u1ee5": 6080,
  "\u2581\u4f60\u662f\u4e2a": 6081,
  "\u2581\u522b\u518d": 6082,
  "\u2581\u8bb0\u5f97": 6083,
  "\u638c": 6084,
  "\u80fd\u5920": 6085,
  "\u8ba2": 6086,
  "\u2581Ch\u00e2n": 6087,
  "\u2581Rachel": 6088,
  "\u2581n\u1ed9p": 6089,
  "\u2581t\u00f9ng": 6090,
  "\u7cdf\u7cd5": 6091,
  "\u8b93\u5979": 6092,
  "\u95fd": 6093,
  "\u2581Ngon": 6094,
  "\u2581Ngo\u1ea1i": 6095,
  "\u2581tr\u00f3i": 6096,
  "\u2581\u4f60\u8981\u6211": 6097,
  "\u2581\u8001\u5927": 6098,
  "\u4f86\u5427": 6099,
  "\u5831": 6100,
  "\u6211\u89c9\u5f97": 6101,
  "\u624b\u672f": 6102,
  "\u90fd\u88ab": 6103,
  "\u2581London": 6104,
  "\u2581\u4f60\u5728\u5e72\u4ec0\u4e48": 6105,
  "\u4e0d\u8a72": 6106,
  "\u4eba\u6c11": 6107,
  "\u528d": 6108,
  "\u590d": 6109,
  "\u597d\u4e8b": 6110,
  "\u770b\u4e86": 6111,
  "\u9001\u5230": 6112,
  "\u2581T\u1eaft": 6113,
  "\u2581c\u01a1m": 6114,
  "\u2581\u0110\u01a1n": 6115,
  "\u2581\u300a": 6116,
  "\u2581\u5965": 6117,
  "\u2581\u6211\u5e94\u8be5": 6118,
  "\u2581\u662f\u4e2a": 6119,
  "\u559d\u4e86": 6120,
  "\u6253\u4ed7": 6121,
  "\u6559\u6211": 6122,
  "\u76d1\u89c6": 6123,
  "\u84cb": 6124,
  "\u9664\u4e86": 6125,
  "\ue80b": 6126,
  "\u2581ru\u1ed9t": 6127,
  "\u2581tr\u00e0n": 6128,
  "\u2581\u4e0b\u6b21": 6129,
  "\u51fa\u53e3": 6130,
  "\u5373": 6131,
  "\u59d3": 6132,
  "\u60ca": 6133,
  "\u78e8": 6134,
  "\u7bb1\u5b50": 6135,
  "\u2581ng\u01b0\u1ee1ng": 6136,
  "\u2581su\u00fdt": 6137,
  "\u2581\u4ed6\u60f3": 6138,
  "\u2581\u542c": 6139,
  "\u2581\u770b\u770b\u4f60": 6140,
  "\u6b22\u8fce": 6141,
  "\u8054\u7edc": 6142,
  "\u9635": 6143,
  "\u2581Pete": 6144,
  "\u2581chu\u00f4ng": 6145,
  "\u2581c\u1eafm": 6146,
  "\u2581\u4f60\u77e5\u9053\u55ce": 6147,
  "\u4e2a\u6708": 6148,
  "\u540c\u5fd7": 6149,
  "\u5b66\u4e60": 6150,
  "\u5c55": 6151,
  "\u6700\u540e\u4e00\u6b21": 6152,
  "\u2581C\u1ef1c": 6153,
  "\u2581Thu\u1ed1c": 6154,
  "\u2581tu\u00e2n": 6155,
  "\u2581v\u00e2n": 6156,
  "\u2581\u4f60\u4e00\u5b9a": 6157,
  "\u54ea\u5152": 6158,
  "\u5929\u5802": 6159,
  "\u9ad8\u4e2d": 6160,
  "ent": 6161,
  "\u2530": 6162,
  "\u2581Ch\u1ed3ng": 6163,
  "\u2581hi\u1ebfm": 6164,
  "\u2581there": 6165,
  "\u2581th\u0103": 6166,
  "\u2581\u0111\u1ebb": 6167,
  "\u2581\u5fc5\u987b": 6168,
  "\u50b7\u5bb3": 6169,
  "\u5730\u5740": 6170,
  "\u5973\u751f": 6171,
  "\u5c4e": 6172,
  "\u6bcf\u4e2a": 6173,
  "\u6c38\u8fdc\u4e0d\u4f1a": 6174,
  "\u7684\u60f3\u6cd5": 6175,
  "\u8ca8": 6176,
  "\u9700\u8981\u4f60": 6177,
  "H\u1eb3n": 6178,
  "\u2581S\u00fang": 6179,
  "\u2581l\u00ea": 6180,
  "\u505c\u4e0b": 6181,
  "\u54af": 6182,
  "\u5730\u70b9": 6183,
  "\u628a\u4ed6\u4eec": 6184,
  "\u6beb\u65e0": 6185,
  "\u770b\u5230\u7684": 6186,
  "\u2581\u01b0a": 6187,
  "\u2581\u4e5f\u8bb8\u4f60": 6188,
  "\u2581\u99ac": 6189,
  "\u4e0d\u89c1\u4e86": 6190,
  "\u591a\u4e45\u4e86": 6191,
  "\u6253\u67b6": 6192,
  "\u6cd5\u5b98": 6193,
  "\u79fb": 6194,
  "\u9593": 6195,
  "\u2581Linh": 6196,
  "\u2581Rick": 6197,
  "\u2581ch\u1ee7ng": 6198,
  "\u2581t\u1ec9": 6199,
  "\u2581t\u1ee5": 6200,
  "\u4e0d\u5982": 6201,
  "\u52c7\u6562": 6202,
  "\u5973\u738b": 6203,
  "\u5c16": 6204,
  "\u666f": 6205,
  "\u6a23": 6206,
  "\u2581\u5305\u62ec": 6207,
  "\u4eca": 6208,
  "\u7684\u513f\u5b50": 6209,
  "\u7b49\u8457": 6210,
  "\u826f": 6211,
  "\u968f\u4fbf": 6212,
  "0000": 6213,
  "\u2581\u4f60\u90fd": 6214,
  "\u2581\u8fd9\u662f\u6211\u7684": 6215,
  "\u50cf\u662f": 6216,
  "\u5730\u56fe": 6217,
  "\u5982\u679c\u6211": 6218,
  "\u59ec": 6219,
  "\u5c38": 6220,
  "\u7231\u6211": 6221,
  "\u770b\u6765": 6222,
  "\u8b1d": 6223,
  "\u258125": 6224,
  "\u2581M\u1edbi": 6225,
  "\u2581Reese": 6226,
  "\u2581va": 6227,
  "\u2581\u01b0u": 6228,
  "\u2581\u7b2c\u4e8c": 6229,
  "\u4e00\u652f": 6230,
  "\u5766": 6231,
  "\u591a\u5c11\u94b1": 6232,
  "\u5f88\u96e3": 6233,
  "\u6280\u672f": 6234,
  "\u641e\u7838\u4e86": 6235,
  "\u6709\u4e00\u500b": 6236,
  "\u6709\u53ef\u80fd": 6237,
  "\u737a": 6238,
  "\u2581276)}": 6239,
  "\u4f86\u9019\u88e1": 6240,
  "\u5b54": 6241,
  "\u5bf9\u6211\u4eec": 6242,
  "\u9f13": 6243,
  "\u2581T\u1ed5": 6244,
  "\u2581c\u00e2m": 6245,
  "\u2581x\u00ed": 6246,
  "\u5206\u6790": 6247,
  "\u5e3d\u5b50": 6248,
  "\ue0f6": 6249,
  "\u2581Man": 6250,
  "\u2581g\u0103": 6251,
  "\u2581g\u1ed1i": 6252,
  "\u2581s\u1ed1t": 6253,
  "\u5bf9\u65b9": 6254,
  "\u5fd7": 6255,
  "\u65c1\u8fb9": 6256,
  "\u6700\u9ad8": 6257,
  "\u8bf7\u6c42": 6258,
  "\ue652\ue019": 6259,
  "\u014d": 6260,
  "\u2581n\u00ea": 6261,
  "\u2581\u6211\u5bf9": 6262,
  "\u2581\u6211\u770b\u5230": 6263,
  "\u4e0d\u4e00\u6a23": 6264,
  "\u53f3": 6265,
  "\u597d\u4eba": 6266,
  "\u5b87\u5b99": 6267,
  "\u7842\u5993": 6268,
  "\u793e\u4f1a": 6269,
  "\u800c\u8a00": 6270,
  "\u2581g\u1ee1": 6271,
  "\u2581r\u0103": 6272,
  "\u2581\u6211\u5011\u90fd": 6273,
  "\u4f60\u7236\u4eb2": 6274,
  "\u5192": 6275,
  "\u5e2b": 6276,
  "\u6276": 6277,
  "\u7b54\u61c9": 6278,
  "\u89c9": 6279,
  "ton": 6280,
  "\u2581tr\u00f9m": 6281,
  "\u2581tr\u00fa": 6282,
  "\u2581v\u01b0\u1eddn": 6283,
  "\u2581\u1ed3n": 6284,
  "\u2581\u8981\u662f\u4f60": 6285,
  "\u5065\u5eb7": 6286,
  "\u529f\u592b": 6287,
  "\u5bf6\u8c9d": 6288,
  "\u6bd4\u8cfd": 6289,
  "\u7684\u65b0": 6290,
  "\u8bbe\u8ba1": 6291,
  "\u258116": 6292,
  "\u2581Adam": 6293,
  "\u2581\u592b\u4eba": 6294,
  "\u2581\u8fd9\u513f": 6295,
  "\u5f1f\u5f1f": 6296,
  "\u6709\u4e00\u5929": 6297,
  "\u795e\u79d8": 6298,
  "\u8bb8\u591a": 6299,
  "\u9858\u610f": 6300,
  "ma": 6301,
  "\u2581Tu\u1ea7n": 6302,
  "\u2581hang": 6303,
  "\u2581\u6211\u4e0d\u77e5\u9053\u4f60": 6304,
  "\u5360": 6305,
  "\u541e": 6306,
  "\u624b\u6a5f": 6307,
  "\u72b6\u51b5": 6308,
  "\u7a7f\u7740": 6309,
  "to": 6310,
  "\u2581Holmes": 6311,
  "\u2581Tr\u00f2": 6312,
  "\u2581\u4e0d\u6703": 6313,
  "\u2581\u4f46\u6211\u5011": 6314,
  "\u2581\u5e03": 6315,
  "\u5473\u9053": 6316,
  "\u5df4\u9ece": 6317,
  "\u6211\u9700\u8981": 6318,
  "\u7ecf": 6319,
  "\ue64e": 6320,
  "\u2581Yes": 6321,
  "\u2581d\u00f9m": 6322,
  "\u2581huy\u1ebft": 6323,
  "\u2581\u54ea": 6324,
  "\u2581\u6211\u5f97\u8d70\u4e86": 6325,
  "\u2581\u8d77\u6765": 6326,
  "\u4e00\u5806": 6327,
  "\u4ee5\u5f8c": 6328,
  "\u51f6": 6329,
  "\u5c5e\u4e8e": 6330,
  "\u5e05": 6331,
  "\u600e\u4e48\u6837\u4e86": 6332,
  "\u671f\u5f85": 6333,
  "\u6d88": 6334,
  "Bu\u1ed5i": 6335,
  "\u2581De": 6336,
  "\u2581H\u00e0nh": 6337,
  "\u2581g\u1ed7": 6338,
  "\u2581r\u1ebb": 6339,
  "\u4f1f\u5927\u7684": 6340,
  "\u65e5\u5b50": 6341,
  "\u7434": 6342,
  "\u7ba1\u7406": 6343,
  "\u8361": 6344,
  "\u8d3e": 6345,
  "\u2581Huynh": 6346,
  "\u2581cai": 6347,
  "\u4e0d\u662f\u771f\u7684": 6348,
  "\u64a4": 6349,
  "\u6765\u8fd9": 6350,
  "\u8bf4\u8bf4": 6351,
  "\u2581g\u1ea1t": 6352,
  "\u2581\u4f60\u4e5f\u662f": 6353,
  "\u4e0d\u5c11": 6354,
  "\u5934\u53d1": 6355,
  "\u6253\u958b": 6356,
  "\u628a\u81ea\u5df1": 6357,
  "\u957f\u5927": 6358,
  "\u2581th\u1ec9u": 6359,
  "\u4ece\u6ca1": 6360,
  "\u53a9": 6361,
  "\u59d0": 6362,
  "\u62ff\u4e86": 6363,
  "\u63a5\u5230": 6364,
  "\u904d": 6365,
  "id": 6366,
  "\u2581Francis": 6367,
  "\u2581Nguy\u00ean": 6368,
  "\u2581Qu\u1ef7": 6369,
  "\u2581\u4f60\u9084": 6370,
  "\u2581\u5c71\u59c6": 6371,
  "\u2581\u6c92\u95dc\u4fc2": 6372,
  "\u4f3c\u7684": 6373,
  "\u59d0\u59d0": 6374,
  "\u6211\u7684\u670b\u53cb": 6375,
  "\u656c": 6376,
  "\u665a\u5b89": 6377,
  "\u8981\u4f60": 6378,
  "\u8996": 6379,
  "\u8b66\u65b9": 6380,
  "ge": 6381,
  "\u2581M\u00f4": 6382,
  "\u2581if": 6383,
  "\u2581\u4f60\u6253\u7b97": 6384,
  "\u2581\u7f8e\u56fd": 6385,
  "\u516c\u5bd3": 6386,
  "\u5f00\u73a9\u7b11": 6387,
  "\u6212\u6307": 6388,
  "\u71df": 6389,
  "\u7528\u4e86": 6390,
  "\u7b2c\u4e09": 6391,
  "\u8c93": 6392,
  "\u2581\u6211\u8bb0\u5f97": 6393,
  "\u4e00\u5b9a\u6703": 6394,
  "\u5e26\u4f60": 6395,
  "\u76f4\u5230": 6396,
  "\u77e5\u9053\u7684": 6397,
  "\u7ecf\u8fc7": 6398,
  "\u95fb": 6399,
  "\u9884": 6400,
  "\u9ea6\u514b": 6401,
  "\u2581\u0111\u00f2n": 6402,
  "\u2581\u4f60\u9019": 6403,
  "\u2581\u6885": 6404,
  "\u6211\u6ca1\u6709": 6405,
  "\u6211\u7684\u624b": 6406,
  "\u67e5\u7406": 6407,
  "\u7684\u79d8\u5bc6": 6408,
  "\u76ef\u7740": 6409,
  "60": 6410,
  "\u2581\u01af\u1edbc": 6411,
  "\u2581\u60f3\u8981": 6412,
  "\u964d": 6413,
  "ow": 6414,
  "\u2581V\u1ecb": 6415,
  "\u2581b\u1ecdc": 6416,
  "\u2581\u8036": 6417,
  "\u4f1a\u8bae": 6418,
  "\u54c8\u5229": 6419,
  "\u611f\u60c5": 6420,
  "\u7684\u80fd\u529b": 6421,
  "\u7947": 6422,
  "\u9a91\u58eb": 6423,
  "\u2581Th\u1ed1ng": 6424,
  "\u2581g\u00f3p": 6425,
  "\u2581\u0111\u1ea1c": 6426,
  "\u2581\u4e0d\u7528\u4e86": 6427,
  "\u2581\u653e\u4e0b": 6428,
  "\u2581\u9019\u662f\u6211": 6429,
  "\u4e13\u5bb6": 6430,
  "\u6b78": 6431,
  "\u6c92\u4eba": 6432,
  "\u7dca": 6433,
  "\u80fd\u770b\u5230": 6434,
  "\u2581Amy": 6435,
  "\u2581Chuck": 6436,
  "\u2581Mai": 6437,
  "\u2581b\u1ed1i": 6438,
  "\u2581huy\u1ec1n": 6439,
  "\u2581ng\u00e0o": 6440,
  "\u4e0d\u662f\u6211": 6441,
  "\u4e5f\u53ef\u4ee5": 6442,
  "\u5370\u5ea6": 6443,
  "\u5411\u6211": 6444,
  "\u5413": 6445,
  "\u5956": 6446,
  "\u624b\u91cc": 6447,
  "\u652f\u63f4": 6448,
  "\u6c38": 6449,
  "\u7a7f\u8fc7": 6450,
  "\u8fd9\u4e0d\u662f": 6451,
  "\u2581b\u1ef1c": 6452,
  "\u2581thao": 6453,
  "\u2581\u4e0e": 6454,
  "\u2581\u5e0c\u671b\u4f60": 6455,
  "\u4e0b\u4e86": 6456,
  "\u4f50": 6457,
  "\u5f1f": 6458,
  "\u6709\u6548": 6459,
  "\u6f0f": 6460,
  "\u8c37": 6461,
  "\u2581bu\u00fdt": 6462,
  "\u2581gi\u1eadt": 6463,
  "\u2581vi\u1ec5n": 6464,
  "\u2581\u5411": 6465,
  "\u2581\u5bf6\u8c9d": 6466,
  "\u2581\u6216\u8a31": 6467,
  "\u2581\u65f6\u95f4": 6468,
  "\u505a\u597d": 6469,
  "\u5211": 6470,
  "\u5267": 6471,
  "\u5f55": 6472,
  "\u74f6": 6473,
  "\u8001\u662f": 6474,
  "\u8bba": 6475,
  "\u2581Ryan": 6476,
  "\u2581\u5f88\u591a": 6477,
  "\u4e09\u5929": 6478,
  "\u521b": 6479,
  "\u8b93\u4ed6\u5011": 6480,
  "\u8d3c": 6481,
  "\ue7a4": 6482,
  "kho\u1ea3nh": 6483,
  "ru": 6484,
  "\u2581ngh\u00ecn": 6485,
  "\u2581\u590f\u6d1b\u514b": 6486,
  "\u2581\u6211\u544a\u8bc9\u4f60": 6487,
  "\u2581\u8bb0\u4f4f": 6488,
  "\u5687": 6489,
  "\u5973\u6027": 6490,
  "\u653e\u68c4": 6491,
  "\u788d": 6492,
  "\u89c4\u5219": 6493,
  "\u1eefa": 6494,
  "\u2581bi\u1ec7n": 6495,
  "\u2581\u0111c": 6496,
  "\u2581\u4f60\u771f\u662f": 6497,
  "\u2581\u8fd9\u662f\u4e00\u4e2a": 6498,
  "\u4ff1\u4e50\u90e8": 6499,
  "\u524d\u5f80": 6500,
  "\u53ef\u80fd\u6703": 6501,
  "\u592a\u9633": 6502,
  "\u5f88\u5b89\u5168": 6503,
  "\u60f3\u8d77": 6504,
  "\u62a5\u8b66": 6505,
  "\u6d3e\u5c0d": 6506,
  "\u7167\u9867": 6507,
  "\u809a\u5b50": 6508,
  "\u8299": 6509,
  "\u8bf4\u8c0e": 6510,
  "\u8c6c": 6511,
  "\u2581c\u00e1t": 6512,
  "\u2581\u4ed6\u4eec\u8bf4": 6513,
  "\u2581\u4f60\u80af\u5b9a": 6514,
  "\u2581\u4f60\u9084\u597d\u55ce": 6515,
  "\u4e00\u751f": 6516,
  "\u4e5f\u6c92": 6517,
  "\u5c3d\u5feb": 6518,
  "\u65af\u5148\u751f": 6519,
  "\u820d": 6520,
  "#7843;": 6521,
  "\u2581Gi\u00e1": 6522,
  "\u2581Tr\u1eafng": 6523,
  "\u2581d\u01b0\u1ee1ng": 6524,
  "\u2581th\u1ecf": 6525,
  "\u2581\u0111\u01a1": 6526,
  "\u4e0d\u91cd\u8981": 6527,
  "\u4ecb\u7ecd": 6528,
  "\u5728\u4e0a\u9762": 6529,
  "\u5979\u662f": 6530,
  "\u600e": 6531,
  "\u63d0\u51fa": 6532,
  "\u7684\u8863\u670d": 6533,
  "\u7a76\u7adf": 6534,
  "\u9435": 6535,
  "\u95dc\u5fc3": 6536,
  "\u2581g\u00e1nh": 6537,
  "\u2581ng\u1eedi": 6538,
  "\u2581\u0111\u01b0\u01a1ng": 6539,
  "\u2581\u6211\u662f\u4e2a": 6540,
  "\u5728\u5bb6": 6541,
  "\u751c": 6542,
  "\u809a": 6543,
  "\u2581v\u0129nh": 6544,
  "\u2581\u4e0a\u9762": 6545,
  "\u4e8b\u5be6": 6546,
  "\u53ef\u6015\u7684": 6547,
  "\u5f8c\u9762": 6548,
  "\u9ebb": 6549,
  "\u258124": 6550,
  "\u2581H\u1ecdc": 6551,
  "\u2581\u4e0d\u662f\u6211": 6552,
  "\u2581\u4f60\u6709\u6ca1\u6709": 6553,
  "\u2581\u5df4": 6554,
  "\u2581\u662f\u8c01": 6555,
  "\u672a\u4f86": 6556,
  "\u6c7d\u8f66": 6557,
  "\u6ce8": 6558,
  "\u80cc\u53db": 6559,
  "\u2581H\u01a1i": 6560,
  "\u2581about": 6561,
  "\u2581hi\u1ebfn": 6562,
  "\u2581h\u00e2m": 6563,
  "\u2581s\u1ee3i": 6564,
  "\u2581\u767d": 6565,
  "\u5f88\u5bb9\u6613": 6566,
  "\u5f88\u9ad8\u5174": 6567,
  "\u6436": 6568,
  "\u667a": 6569,
  "\u83b7": 6570,
  "\u9084\u8981": 6571,
  "\u2581Gi\u00e1m": 6572,
  "\u2581H\u1ecfi": 6573,
  "\u2581Scott": 6574,
  "\u2581T\u00f4": 6575,
  "\u2581\u4f60\u4ed6\u5988\u7684": 6576,
  "\u4f34": 6577,
  "\u5e95\u4e0b": 6578,
  "\u7684\u6b7b": 6579,
  "\u8d44\u6599": 6580,
  "Z": 6581,
  "\u2581Ray": 6582,
  "\u2581She": 6583,
  "\u2581\u4f60\u4e0d\u6703": 6584,
  "\u2581\u4f60\u4eca\u5929": 6585,
  "\u2581\u8ba9\u4ed6\u4eec": 6586,
  "\u4e00\u8fb9": 6587,
  "\u76ee\u6a19": 6588,
  "\u7c7b": 6589,
  "\u8aaa\u4f60": 6590,
  "\u8ddf\u6211\u4eec": 6591,
  "\u96a8": 6592,
  "\u2581200": 6593,
  "\u2581b\u00e2": 6594,
  "\u2581h\u01b0\u1edbc": 6595,
  "\u2581v\u1ed1n": 6596,
  "\u2581\u6211\u53d1\u8a93": 6597,
  "\u5409\u59c6": 6598,
  "\u5730\u4e0b": 6599,
  "\u7d50": 6600,
  "\ue6dd": 6601,
  "\u2581\u6211\u8bf4\u8fc7": 6602,
  "\u51e0\u5929": 6603,
  "\u662f\u552f\u4e00": 6604,
  "\u770b\u4e00\u4e0b": 6605,
  "\u88ad\u51fb": 6606,
  "\u8ced": 6607,
  "\u8fd9\u4e9b\u4eba": 6608,
  "\u9192\u6765": 6609,
  ";": 6610,
  "\u2581Annie": 6611,
  "\u2581qu\u00e9t": 6612,
  "\u2581\u1ea2": 6613,
  "\u2581\u770b\u7740\u6211": 6614,
  "\u2581\u8fd8\u8981": 6615,
  "\u4e1f": 6616,
  "\u4e56": 6617,
  "\u6491": 6618,
  "\u6740\u4e86\u4f60": 6619,
  "\u6ca1\u65f6\u95f4": 6620,
  "\u73bb\u7483": 6621,
  "\u7adf\u7136": 6622,
  "\u8070\u660e": 6623,
  "\ue124": 6624,
  "\u6027\u7684": 6625,
  "\u6709\u673a\u4f1a": 6626,
  "\u822c": 6627,
  "\u258196": 6628,
  "\u2581Martin": 6629,
  "\u2581\u4f60\u8be5": 6630,
  "\u58d3": 6631,
  "\u611b\u4f60": 6632,
  "\u641c": 6633,
  "\u662f\u5c0d\u7684": 6634,
  "\u70b8\u5f48": 6635,
  "\u7684\u547d\u4ee4": 6636,
  "\u8166": 6637,
  "\u8981\u627e": 6638,
  "ver": 6639,
  "\u2581Co": 6640,
  "\u2581mu\u1ed9i": 6641,
  "\u2581\u7b49\u4e0b": 6642,
  "\u4e16\u7eaa": 6643,
  "\u4f60\u4e0d": 6644,
  "\u4ff1": 6645,
  "\u6709\u4f55": 6646,
  "\u7684\u597d": 6647,
  "\u7830": 6648,
  "\u53d7\u4e0d\u4e86": 6649,
  "\u5f31": 6650,
  "\u5f71\u54cd": 6651,
  "\u6839\u672c\u4e0d": 6652,
  "\u6c99\u6f20": 6653,
  "\u71d2": 6654,
  "\ue717": 6655,
  "\u2581Harold": 6656,
  "\u2581\u56de\u5230": 6657,
  "\u5de6": 6658,
  "\u6216\u662f": 6659,
  "\u65c1": 6660,
  "\u6876": 6661,
  "\u6cd5\u56fd": 6662,
  "\u781b": 6663,
  "\u8b49\u64da": 6664,
  "\u2581B\u00e1m": 6665,
  "\u2581They": 6666,
  "\u2581ngh\u00e8o": 6667,
  "\u2581\u65e0": 6668,
  "\u2581\u65e9": 6669,
  "\u4e00\u4eba": 6670,
  "\u521b\u9020": 6671,
  "\u53c2\u4e0e": 6672,
  "\u554f\u4f60": 6673,
  "\u684c": 6674,
  "\u8c6a": 6675,
  "tr": 6676,
  "\u2581B\u01b0\u1edbc": 6677,
  "\u2581chui": 6678,
  "\u2581r\u1ebd": 6679,
  "\u2581tuy\u1ec3n": 6680,
  "\u2581\u0110\u1ec7": 6681,
  "\u2581\u4f60\u6c92": 6682,
  "\u2581\u521a\u624d": 6683,
  "\u2581\u5b69\u5b50\u4eec": 6684,
  "\u2581\u771f\u7684\u55ce": 6685,
  "\u4e08\u592b": 6686,
  "\u538b\u529b": 6687,
  "\u53c8\u4e0d\u662f": 6688,
  "\u62c9\u65af": 6689,
  "\u771f\u5b9e": 6690,
  "\u793c": 6691,
  "#236;": 6692,
  "\u2581Tr\u01b0\u1eddng": 6693,
  "\u2581\u5916\u9762": 6694,
  "\u2581\u5b89\u5168": 6695,
  "\u2581\u6211\u81ea\u5df1": 6696,
  "\u2581\u7f85": 6697,
  "\u4e0d\u5920": 6698,
  "\u4e0d\u76f8\u4fe1": 6699,
  "\u4eba\u7269": 6700,
  "\u4f1a\u4e0d\u4f1a": 6701,
  "\u5077\u4e86": 6702,
  "\u514b\u62c9": 6703,
  "\u63a7": 6704,
  "\u66f4\u591a\u7684": 6705,
  "\u6b8b": 6706,
  "\u7f6e": 6707,
  "#7879;": 6708,
  "\u2581Ki\u1ec3u": 6709,
  "\u2581ng\u00e0nh": 6710,
  "\u2581\u6211\u8fd8\u662f": 6711,
  "\u4ec0\u4e48\u90fd": 6712,
  "\u548c\u6211\u4eec": 6713,
  "\u5f00\u4e86": 6714,
  "\u6253\u6b7b": 6715,
  "\u7684\u773c\u775b": 6716,
  "\u884c\u674e": 6717,
  "\u8bb2\u8bdd": 6718,
  "\u2581Phong": 6719,
  "\u2581\u5341": 6720,
  "\u2581\u75f7": 6721,
  "\u2581\u9019\u91cc": 6722,
  "\u5728\u4ed6": 6723,
  "\u5fc3\u91cc": 6724,
  "\u60c5\u62a5": 6725,
  "\u6211\u4eec\u53ef\u4ee5": 6726,
  "\u6765\u5230": 6727,
  "\u958b\u5fc3": 6728,
  "\u2581H\u1ed3": 6729,
  "\u2581b\u1ed5": 6730,
  "\u2581\u6709\u65f6\u5019": 6731,
  "\u2581\u6c92\u4e8b\u7684": 6732,
  "\u4e0d\u4f4f": 6733,
  "\u53f2\u5854\u514b": 6734,
  "\u6211\u6ca1": 6735,
  "\u662f\u600e\u4e48\u56de\u4e8b": 6736,
  "\u804a\u804a": 6737,
  "\u2581C\u00e1nh": 6738,
  "\u2581\u662f\u4ec0\u4e48": 6739,
  "\u4e00\u689d": 6740,
  "\u4e0d\u80fd\u518d": 6741,
  "\u5728\u5e72\u4ec0\u4e48": 6742,
  "\u5c45": 6743,
  "\u5e26\u4e86": 6744,
  "\u5f88\u5947\u602a": 6745,
  "\u7684\u5973\u513f": 6746,
  "\u7956": 6747,
  "\u898b\u904e": 6748,
  "\u2581Carter": 6749,
  "\u2581To": 6750,
  "\u2581b\u1ea3y": 6751,
  "\u4e13": 6752,
  "\u570b\u5bb6": 6753,
  "\u72b6\u6001": 6754,
  "\u7cdf": 6755,
  "\ue784": 6756,
  "\u2581Hmm": 6757,
  "\u2581gi": 6758,
  "\u2581run": 6759,
  "\u2581\u5409\u7c73": 6760,
  "\u2581\u90a3\u6211\u5c31": 6761,
  "\u5047\u88c5": 6762,
  "\u7eaf": 6763,
  "\u807d\u6211\u8aaa": 6764,
  "\u2581back": 6765,
  "\u2581c\u1eady": 6766,
  "\u2581s\u1ee5p": 6767,
  "\u2581\u7136\u800c": 6768,
  "\u2581\u8981\u4e48": 6769,
  "\u4e24\u4e2a\u4eba": 6770,
  "\u4f60\u770b": 6771,
  "\u5531\u6b4c": 6772,
  "\u7f8e\u56fd\u4eba": 6773,
  "\u8239\u957f": 6774,
  "\u2581hi\u1ebfp": 6775,
  "\u2581\u6cd5": 6776,
  "\u4e00\u7fa4": 6777,
  "\u5ba3\u5e03": 6778,
  "\u6162\u6162": 6779,
  "\u6a13": 6780,
  "\u6d88\u5931\u4e86": 6781,
  "\u72af\u4e86": 6782,
  "\u770b\u904e": 6783,
  "\u78c5": 6784,
  "\u81e3": 6785,
  "\u2581Th\u00e1m": 6786,
  "\u2581ng\u00f4": 6787,
  "\u2581\u5982\u679c\u6211\u5011": 6788,
  "\u4e0d\u6015": 6789,
  "\u539a": 6790,
  "\u6211\u548c": 6791,
  "\u8bb0\u4f4f": 6792,
  "\u8fd8\u597d\u5417": 6793,
  "\u2581M\u1eaft": 6794,
  "\u2581m\u01b0\u1eddi": 6795,
  "\u2581r\u00e2u": 6796,
  "\u2581\u4e00\u8d77": 6797,
  "\u2581\u54b1\u5011": 6798,
  "\u4e24\u5929": 6799,
  "\u4ed6\u4eec\u4f1a": 6800,
  "\u4f60\u5462": 6801,
  "\u53d6\u6d88": 6802,
  "\u5f97\u591a": 6803,
  "\u76f4\u5347\u673a": 6804,
  "\u964c\u751f\u4eba": 6805,
  "\ue5ec\ue4c7": 6806,
  "ard": 6807,
  "ha": 6808,
  "\u2581lau": 6809,
  "\u2581will": 6810,
  "\u2581\u01b0\u1edbt": 6811,
  "\u2581\u4f60\u4ee5\u4e3a": 6812,
  "\u4e26\u4e0d": 6813,
  "\u4eba\u5bb6": 6814,
  "\u5916\u5957": 6815,
  "\u67d0\u4eba": 6816,
  "\u6b63\u662f": 6817,
  "\u2581Cao": 6818,
  "\u2581Queen": 6819,
  "\u2581\u4fdd\u6301": 6820,
  "\u2581\u5c3d\u7ba1": 6821,
  "\u523b": 6822,
  "\u53eb\u4ed6": 6823,
  "\u5c0f\u5973\u5b69": 6824,
  "\u5de7\u514b\u529b": 6825,
  "\u672f": 6826,
  "\u6e38\u6cf3": 6827,
  "\u732d": 6828,
  "\u8ddf\u4f60\u8aaa": 6829,
  "\u9b54\u9b3c": 6830,
  "\u2581Ch\u1ee9": 6831,
  "\u2581This": 6832,
  "\u2581Underwood": 6833,
  "\u2581\u4e0a\u5e1d\u554a": 6834,
  "\u2581\u5920\u4e86": 6835,
  "\u2581\u6211\u4eec\u80fd": 6836,
  "\u2581\u7531": 6837,
  "\u2581\u7ad9\u4f4f": 6838,
  "\u4e0a\u5c09": 6839,
  "\u5973\u5152": 6840,
  "\u624b\u4e0b": 6841,
  "\u6545": 6842,
  "\u6ce5": 6843,
  "\u7b54\u5e94": 6844,
  "\u8ddf\u6211\u8aaa": 6845,
  "\u9019\u6b21": 6846,
  "\u9650": 6847,
  "\u2581Nhi\u1ec7m": 6848,
  "\u2581ng\u1eaft": 6849,
  "\u2581\u0110em": 6850,
  "\u2581\u4e00\u5b9a": 6851,
  "\u2581\u6770": 6852,
  "\u4e0d\u5e78": 6853,
  "\u4f17": 6854,
  "\u516c\u91cc": 6855,
  "\u5c31\u662f\u8fd9\u6837": 6856,
  "\u5f00\u59cb\u4e86": 6857,
  "\u5f69": 6858,
  "\u60c5\u6cc1": 6859,
  "\u611a\u8822\u7684": 6860,
  "\u6211\u55ce": 6861,
  "\u6467\u6bc1": 6862,
  "\u6807": 6863,
  "\u80af\u5b9a\u662f": 6864,
  "45": 6865,
  "\u2581Emily": 6866,
  "\u2581Kh\u00e1ch": 6867,
  "\u2581\u7b49\u4f60": 6868,
  "\u4e86\u5979": 6869,
  "\u4ed8\u51fa": 6870,
  "\u5145": 6871,
  "\u53f6": 6872,
  "\u5438\u8840\u9b3c": 6873,
  "\u5b69\u5b50\u5011": 6874,
  "\u600e\u9ebd": 6875,
  "\u7684\u751f\u547d": 6876,
  "\u9000\u51fa": 6877,
  "\u963f\u5c14": 6878,
  "\u2581Andy": 6879,
  "\u2581Um": 6880,
  "\u2581gi\u00f9m": 6881,
  "\u2581ho\u00e0i": 6882,
  "\u2581\u00c2u": 6883,
  "\u2581\u4e00\u4e9b": 6884,
  "\u2581\u4e00\u5b9a\u662f": 6885,
  "\u2581\u8ddf\u6211\u6765": 6886,
  "\u559c\u6b22\u4f60": 6887,
  "\u5bb6\u7684": 6888,
  "\u5efa\u7acb": 6889,
  "\u770b\u4e0a\u53bb": 6890,
  "\u2581r\u1ee7a": 6891,
  "\u2581\u4f60\u6765": 6892,
  "\u2581\u6211\u53c8": 6893,
  "\u4e0d\u8ba4\u8bc6": 6894,
  "\u4ecb\u610f": 6895,
  "\u4efb\u52d9": 6896,
  "\u504f": 6897,
  "\u51f1": 6898,
  "\u5468\u56f4": 6899,
  "\u55b7": 6900,
  "\u662f\u8981": 6901,
  "\u6ce8\u610f\u5230": 6902,
  "\u7adf": 6903,
  "\u8d62\u5f97": 6904,
  "\u904e\u4e86": 6905,
  "\u258117": 6906,
  "\u2581gi\u00ea": 6907,
  "\u812b": 6908,
  "\u8212\u670d": 6909,
  "\u9178": 6910,
  "\u2581C\u0103n": 6911,
  "\u2581trinh": 6912,
  "\u2581\u4f60\u61c9\u8a72": 6913,
  "\u2581\u6709\u70b9": 6914,
  "\u2581\u795e": 6915,
  "\u2581\u90a3\u6837": 6916,
  "\u4e5f\u5f88": 6917,
  "\u516c\u56ed": 6918,
  "\u5317\u65b9": 6919,
  "\u5f88\u6e05\u695a": 6920,
  "\u807d\u5230\u4e86": 6921,
  "\u89e3\u6c7a": 6922,
  "\u8fa6\u516c\u5ba4": 6923,
  "\u8fd9\u5bb6\u4f19": 6924,
  "\u2581b\u1edbt": 6925,
  "\u2581khoang": 6926,
  "\u2581\u628a\u6211": 6927,
  "\u2581\u79d1": 6928,
  "\u2581\u8981\u4e0d\u8981": 6929,
  "\u2581\u90a3\u662f\u4ec0\u9ebc": 6930,
  "\u2581\u9664\u975e\u4f60": 6931,
  "\u4e00\u4f1a": 6932,
  "\u500d": 6933,
  "\u6591": 6934,
  "\u884c\u4e3a": 6935,
  "\u8981\u8d70\u4e86": 6936,
  "\u8d70\u8def": 6937,
  "\u2581m\u1ecf": 6938,
  "\u2581\u0111\u1ea3ng": 6939,
  "\u2581\u4e24": 6940,
  "\u2581\u4e54": 6941,
  "\u51b3": 6942,
  "\u58c1": 6943,
  "\u795e\u7ecf": 6944,
  "\u7b7e": 6945,
  "\u9084\u80fd": 6946,
  "\u9677\u9631": 6947,
  "\u2581D\u00e2n": 6948,
  "\u2581chi\u00eau": 6949,
  "\u2581g\u1ecdn": 6950,
  "\u53bb\u54ea\u91cc": 6951,
  "\u53cd\u5bf9": 6952,
  "\u599e": 6953,
  "\u6280": 6954,
  "\u6548": 6955,
  "\u66f4\u597d\u7684": 6956,
  "\u8b77": 6957,
  "\u9019\u88cf": 6958,
  "\u978b\u5b50": 6959,
  "\u2581S\u1ee3": 6960,
  "\u2581ch\u1ed1t": 6961,
  "\u2581k\u1ec9": 6962,
  "\u2581\u8c22\u4e86": 6963,
  "\u4e94\u5341": 6964,
  "\u53cd\u6297": 6965,
  "\u591f\u4e86": 6966,
  "\u5b89\u9759": 6967,
  "\u6572": 6968,
  "\u6b7b\u6389": 6969,
  "\u2581H\u1eafc": 6970,
  "\u2581Marty": 6971,
  "\u2581T\u1ee9": 6972,
  "\u2581long": 6973,
  "\u2581\u0111\u1ed9n": 6974,
  "\u2581\u624d\u80fd": 6975,
  "\u2581\u795d\u4f60": 6976,
  "\u4e0d\u6e05\u695a": 6977,
  "\u4f8b": 6978,
  "\u5168\u4e16\u754c": 6979,
  "\u51fa\u53bb\u4e86": 6980,
  "\u5242": 6981,
  "\u5999": 6982,
  "\u7842\u6216": 6983,
  "\u90fd\u884c": 6984,
  "\u2581283": 6985,
  "\u2581Phil": 6986,
  "\u2581ch\u00f4": 6987,
  "\u2581to\u00e0": 6988,
  "\u2581\u5e72": 6989,
  "\u2581\u5f80": 6990,
  "\u2581\u6b63\u5728": 6991,
  "\u2581\ue0a4": 6992,
  "\u4e0b\u7684": 6993,
  "\u5012\u662f": 6994,
  "\u541b": 6995,
  "\u5730\u4e0a": 6996,
  "\u5929\u4e0b": 6997,
  "\u5c31\u4e0d\u80fd": 6998,
  "\u6211\u7684\u540d\u5b57": 6999,
  "\u7d50\u675f\u4e86": 7000,
  "\u2581\u67ef": 7001,
  "\u2581\u73b0\u5728\u6211\u4eec": 7002,
  "\u4e0b\u5348": 7003,
  "\u4ed9": 7004,
  "\u53d1\u8a93": 7005,
  "\u5c55\u793a": 7006,
  "\u5f88\u4e45\u4e86": 7007,
  "\u6211\u513f\u5b50": 7008,
  "\u6709\u7528": 7009,
  "\u6709\u94b1": 7010,
  "\u6f58": 7011,
  "\u8587": 7012,
  "\u8d1f": 7013,
  "\u2581D\u01b0\u1edbi": 7014,
  "\u2581t\u00e2n": 7015,
  "\u2581\u4f60\u5728\u8bf4\u4ec0\u4e48": 7016,
  "\u4e0d\u5728\u4e4e": 7017,
  "\u4fdd\u5b89": 7018,
  "\u51ac": 7019,
  "\u5468\u672b": 7020,
  "\u5973\u5deb": 7021,
  "\u597d\u6d88\u606f": 7022,
  "\u5e36\u8457": 7023,
  "\u61f7": 7024,
  "\u7684\u8eab\u4efd": 7025,
  "\u8352": 7026,
  "\u907f\u514d": 7027,
  "\ue624": 7028,
  "\u2581taxi": 7029,
  "\u2581voi": 7030,
  "\u2581\u0110\u1ed9": 7031,
  "\u2581\u4f60\u53ef": 7032,
  "\u2581\u4f60\u597d\u5417": 7033,
  "\u4e00\u8f86": 7034,
  "\u54ea\u88e1": 7035,
  "\u5939": 7036,
  "\u5c3a": 7037,
  "\u5f81": 7038,
  "\u8fa6\u6cd5": 7039,
  "\u90fd\u4e0d\u77e5\u9053": 7040,
  "\ue60e": 7041,
  "\u2581\u53ef\u60dc": 7042,
  "\u4e0d\u7136": 7043,
  "\u53bb\u8fc7": 7044,
  "\u60f3\u4e0d\u5230": 7045,
  "\u90fd\u6c92\u6709": 7046,
  "\u2581ch\u1ee3": 7047,
  "\u2581\u5c11": 7048,
  "\u2581\u79bb": 7049,
  "\u5373\u5c06": 7050,
  "\u662f\u6211\u4eec\u7684": 7051,
  "\u6740\u6389": 7052,
  "\u6cd5\u5ead": 7053,
  "\u7334\u5b50": 7054,
  "\u997c": 7055,
  "\ue18a": 7056,
  "\u258100": 7057,
  "\u2581CIA": 7058,
  "\u2581Hank": 7059,
  "\u2581ch\u1ea5n": 7060,
  "\u2581d\u00e0y": 7061,
  "\u2581ng": 7062,
  "\u2581r": 7063,
  "\u2581\u4e00\u5b9a\u8981": 7064,
  "\u2581\u4e0d\u51c6": 7065,
  "\u2581\u600e\u9ebc\u56de\u4e8b": 7066,
  "\u574f\u4eba": 7067,
  "\u586b": 7068,
  "\u5f04\u5230": 7069,
  "\u5f85\u5728": 7070,
  "\u6765\u8fd9\u513f": 7071,
  "\u7159": 7072,
  "\u8e29": 7073,
  "\ue795": 7074,
  "\u2581\u60f3\u60f3": 7075,
  "\u2581\u8981\u662f\u6211": 7076,
  "\u50cf\u4f60": 7077,
  "\u53f7\u7801": 7078,
  "\u5951": 7079,
  "\u6027\u611f": 7080,
  "\u6ce8\u5c04": 7081,
  "\u8072\u97f3": 7082,
  "pos": 7083,
  "\u2581Nghi\u00eam": 7084,
  "\u2581c\u0103": 7085,
  "\u2581\u0111o": 7086,
  "\u2581\u4e0d\u5982": 7087,
  "\u2581\u57c3": 7088,
  "\u4e0d\u540c\u7684": 7089,
  "\u5173\u6389": 7090,
  "\u52a0\u6cb9": 7091,
  "\u53a8": 7092,
  "\u610f\u8bc6\u5230": 7093,
  "\u6975": 7094,
  "\u6c7a": 7095,
  "\u7248": 7096,
  "\u89c1\u5230\u4f60": 7097,
  "\u8fd0\u52a8": 7098,
  "\u2581Phu": 7099,
  "\u2581g\u1ed3m": 7100,
  "\u2581n\u1eafng": 7101,
  "\u2581v\u00e1n": 7102,
  "\u2581\u5230\u4e86": 7103,
  "\u2581\u5967": 7104,
  "\u2581\u6211\u4ee5\u4e3a\u4f60": 7105,
  "\u2581\u6211\u77e5\u9053\u4e86": 7106,
  "\u5353": 7107,
  "\u59b9\u59b9": 7108,
  "\u5dee\u70b9": 7109,
  "\u660e\u767d\u4e86": 7110,
  "\u7684\u4e00\u90e8\u5206": 7111,
  "\ue4fc": 7112,
  "\u2581Rose": 7113,
  "\u2581b\u01a1": 7114,
  "\u2581\u0110\u00e1m": 7115,
  "\u2581\u6211\u4e0d\u559c\u6b22": 7116,
  "\u2581\u7f8e": 7117,
  "\u4e0d\u5bf9": 7118,
  "\u5e9f\u8bdd": 7119,
  "\u600e\u9ebc\u8aaa": 7120,
  "\u6551\u6211": 7121,
  "\u6574\u500b": 7122,
  "\u89c4\u77e9": 7123,
  "\u8f15": 7124,
  "\u9879": 7125,
  "\u2581ng\u1eadp": 7126,
  "\u2581qu\u1ef9": 7127,
  "\u2581thu\u1ef7": 7128,
  "\u2581\u5225\u64d4\u5fc3": 7129,
  "\u2581\u5982\u679c\u662f": 7130,
  "\u5c31\u6709": 7131,
  "\u662f\u6700": 7132,
  "\u6d6e": 7133,
  "\u9ce5": 7134,
  "\u2581Vi\u00ean": 7135,
  "\u2581\u4e0d\u662f\u55ce": 7136,
  "\u2581\u8fd9\u5bb6\u4f19": 7137,
  "\u4e0b\u8f66": 7138,
  "\u4f86\u81ea": 7139,
  "\u574e": 7140,
  "\u7684\u90a3": 7141,
  "\u770b\u8457": 7142,
  "\u8bb0\u8005": 7143,
  "\u9017": 7144,
  "\u9762\u5305": 7145,
  "\u9e7f": 7146,
  "\ue174": 7147,
  "\ue661": 7148,
  "\u2581Ki\u1ebfm": 7149,
  "\u2581S\u1ed1ng": 7150,
  "\u2581Thi\u1ebft": 7151,
  "\u2581T\u1eebng": 7152,
  "\u2581nh": 7153,
  "\u2581\u5982\u679c\u5979": 7154,
  "\u2581\u5c24\u5176\u662f": 7155,
  "\u2581\u5f53\u65f6": 7156,
  "\u2581\u5f53\u7136\u4e86": 7157,
  "\u2581\u6211\u4eec\u53bb": 7158,
  "\u4e0d\u592a\u597d": 7159,
  "\u4e11": 7160,
  "\u4e95": 7161,
  "\u505a\u4e2a": 7162,
  "\u5141\u8bb8": 7163,
  "\u63d0\u9192": 7164,
  "\u6551\u4f60": 7165,
  "\u8001\u670b\u53cb": 7166,
  "\u8c0b": 7167,
  "\u9986": 7168,
  "\u2581Go": 7169,
  "\u2581l\u00f9n": 7170,
  "\u2581th\u00e1c": 7171,
  "\u2581\u6211\u53ef\u4e0d": 7172,
  "\u4ed7": 7173,
  "\u5bf9\u5979": 7174,
  "\u6211\u4e0d\u4f1a": 7175,
  "\u6625": 7176,
  "\u7684\u7535\u8bdd": 7177,
  "\u90fd\u5f88": 7178,
  "\u91c7": 7179,
  "\u949f": 7180,
  "\u95f2": 7181,
  "\ue058": 7182,
  "ate": 7183,
  "\u2581\u0111\u1ee9t": 7184,
  "\u2581\u4f60\u662f\u8ab0": 7185,
  "\u4f26\u6566": 7186,
  "\u53ea\u60f3": 7187,
  "\u5728\u7b49": 7188,
  "\u594e": 7189,
  "\u5e26\u6211": 7190,
  "\u5f00\u95e8": 7191,
  "\u6253\u8d25": 7192,
  "\u62d2\u7d55": 7193,
  "\u6b63\u597d": 7194,
  "\u6ca1\u6709\u4eba": 7195,
  "\u6d69": 7196,
  "\u7684\u4eba\u90fd": 7197,
  "\u7eff": 7198,
  "\u902e\u6355": 7199,
  "\u950b": 7200,
  "\u9551": 7201,
  "\u9633": 7202,
  "\u9edb": 7203,
  "\ue804": 7204,
  "x": 7205,
  "\u2581b\u00fat": 7206,
  "\u2581\u4f60\u592a": 7207,
  "\u2581\u53bb\u4f60\u7684": 7208,
  "\u2581\u53e6\u5916": 7209,
  "\u516c\u53f8\u7684": 7210,
  "\u5219": 7211,
  "\u6d01": 7212,
  "\u7684\u8f66": 7213,
  "\u8239\u4e0a": 7214,
  "\u2581d\u00ea": 7215,
  "\u2581h\u01b0u": 7216,
  "\u2581s\u1ed1c": 7217,
  "\u2581tr\u00e1ng": 7218,
  "\u2581t\u00e0": 7219,
  "\u2581\u53c8\u662f": 7220,
  "\u2581\u611f\u89c9": 7221,
  "\u2581\u6211\u4eca\u5929": 7222,
  "\u2581\u8dd1": 7223,
  "\u4e4b\u5916": 7224,
  "\u52b2": 7225,
  "\u5b64": 7226,
  "\u5b8c\u7f8e\u7684": 7227,
  "\u60f3\u7684": 7228,
  "\u6211\u7684\u5bb6\u4eba": 7229,
  "\u8d0f\u4e86": 7230,
  "\u975c": 7231,
  "\u9762\u5177": 7232,
  "\u00d4ng": 7233,
  "\u2581500": 7234,
  "\u2581Gi\u1ea3": 7235,
  "\u2581camera": 7236,
  "\u2581h\u00edt": 7237,
  "\u2581s\u01a1n": 7238,
  "\u2581t\u1ea1": 7239,
  "\u2581\u0110\u00ea": 7240,
  "\u4e5f\u4e0d\u6703": 7241,
  "\u53e6\u5916": 7242,
  "\u542c\u89c1": 7243,
  "\u5bdf": 7244,
  "\u5c5e": 7245,
  "\u65e9\u9910": 7246,
  "\u6b7b\u5b9a\u4e86": 7247,
  "\u7f8e\u5973": 7248,
  "\u8154": 7249,
  "\u85cf\u5728": 7250,
  "\u8b49": 7251,
  "\u2581D\u1ef1": 7252,
  "\u2581Kh\u1ecfe": 7253,
  "\u2581ho\u1ea1n": 7254,
  "\u2581\u0111\u1eafn": 7255,
  "\u2581\u4f46\u5982\u679c": 7256,
  "\u2581\u5148\u751f\u4eec": 7257,
  "\u2581\u5168\u90e8": 7258,
  "\u2581\u5abd": 7259,
  "\u2581\u9ea6\u514b": 7260,
  "\u505a\u5230": 7261,
  "\u5c71\u59c6": 7262,
  "\u5cf0": 7263,
  "\u6843": 7264,
  "\u6d17\u6fa1": 7265,
  "\u6ef4": 7266,
  "\u7801": 7267,
  "\u8fd9\u4e2a\u5730\u65b9": 7268,
  "\u907f": 7269,
  "\u2581d\u1ea1": 7270,
  "\u2581good": 7271,
  "\u2581m\u1edb": 7272,
  "\u2581\u4e4b\u540e": 7273,
  "\u4e5f\u6c92\u6709": 7274,
  "\u610f\u5927\u5229": 7275,
  "\u6211\u5011\u8981": 7276,
  "\u6298": 7277,
  "\u76f8\u5f53": 7278,
  "\u7761\u4e86": 7279,
  "\u820a": 7280,
  "\u9019\u6a23\u7684": 7281,
  "\u258192": 7282,
  "\u2581Matt": 7283,
  "\u4e00\u8def": 7284,
  "\u56de\u5934": 7285,
  "\u597d\u73a9": 7286,
  "\u653e\u5230": 7287,
  "\u7684\u6240\u6709": 7288,
  "\u7a5d": 7289,
  "\u90a3\u665a": 7290,
  "\u2581H\u1ee9a": 7291,
  "\u2581l\u1eb7p": 7292,
  "\u2581nho": 7293,
  "\u2581n\u00f4n": 7294,
  "\u5341\u5e74": 7295,
  "\u542c\u8bf4": 7296,
  "\u5e72\u6d3b": 7297,
  "\u628a\u4f60\u7684": 7298,
  "\u65e0\u5173": 7299,
  "\u6d3b\u4e0b\u53bb": 7300,
  "\u7231\u60c5": 7301,
  "\u72e0": 7302,
  "\u7c84": 7303,
  "\u879f": 7304,
  "\u8c9d": 7305,
  "\u90a3\u65f6": 7306,
  "\u961f\u957f": 7307,
  "\u98ef": 7308,
  "\u2581\u7b2c": 7309,
  "\u5a5a\u793c": 7310,
  "\u5e94\u8be5\u662f": 7311,
  "\u770b\u5230\u6211": 7312,
  "\u771f\u662f\u592a": 7313,
  "\u7a46": 7314,
  "\u7d55\u5c0d": 7315,
  "\u82f1\u5c3a": 7316,
  "\u9762\u5c0d": 7317,
  "ap": 7318,
  "\u2581\u660e\u767d\u5417": 7319,
  "\u52a8\u4f5c": 7320,
  "\u53ea\u662f\u60f3": 7321,
  "\u5510": 7322,
  "\u5e55": 7323,
  "\u65f6\u4ee3": 7324,
  "\u7ffc": 7325,
  "\u80dc\u5229": 7326,
  "sa": 7327,
  "\u258113": 7328,
  "\u2581Jones": 7329,
  "\u2581M\u00f3n": 7330,
  "\u2581d\u1ea1i": 7331,
  "\u2581nh\u00e9t": 7332,
  "\u2581\u0110au": 7333,
  "\u2581\u0111\u00e0m": 7334,
  "\u2581\u4f60\u53ea\u662f": 7335,
  "\u2581\u4f60\u5f88": 7336,
  "\u2581\u5c31\u9019\u6a23": 7337,
  "\u2581\u8fd9\u4e48": 7338,
  "\u4e00\u53e5": 7339,
  "\u4e0d\u516c\u5e73": 7340,
  "\u522b\u52a8": 7341,
  "\u53b2\u5bb3": 7342,
  "\u6d6a\u8d39": 7343,
  "\u71c8": 7344,
  "\u79d1\u5b66": 7345,
  "\u8bf4\u662f": 7346,
  "\u97f3\u6a02": 7347,
  "\u9910\u5385": 7348,
  "\u9a79": 7349,
  "#7853;": 7350,
  "\u2581Binh": 7351,
  "\u2581Red": 7352,
  "\u2581tr\u00fac": 7353,
  "\u2581\u5355": 7354,
  "\u2581\u53ef\u4f60": 7355,
  "\u2581\u606d\u559c": 7356,
  "\u4e0d\u904e": 7357,
  "\u536b": 7358,
  "\u53bb\u54ea\u4e86": 7359,
  "\u5438\u5f15": 7360,
  "\u5662": 7361,
  "\u589e\u52a0": 7362,
  "\u673a\u573a": 7363,
  "\u771f\u7684\u662f": 7364,
  "\u7d55": 7365,
  "\u7d66\u4ed6": 7366,
  "Ti\u1ebfng": 7367,
  "\u2581T\u00f2a": 7368,
  "\u2581x\u00edu": 7369,
  "\u2581\u6211\u5011\u6709": 7370,
  "\u5974\u96b6": 7371,
  "\u62ff\u5230\u4e86": 7372,
  "\u6709\u95dc": 7373,
  "\u7b37": 7374,
  "\u8fd0\u6c14": 7375,
  "\u9470\u5319": 7376,
  "\u2581Kh\u00f3": 7377,
  "\u2581m\u00e1": 7378,
  "\u2581\u591a\u8c22": 7379,
  "\u2581\u6211\u7236\u4eb2": 7380,
  "\u5c31\u4e0d": 7381,
  "\u5c41": 7382,
  "\u5cb8": 7383,
  "\u61f7\u7591": 7384,
  "\u6211\u4eec\u5c31": 7385,
  "\u6696": 7386,
  "\u6d3b\u8457": 7387,
  "\u7f8e\u4e3d\u7684": 7388,
  "\u8fd9\u79cd\u4e8b": 7389,
  "V\u00e0": 7390,
  "\u0305": 7391,
  "\u2581Texas": 7392,
  "\u2581x\u00e0i": 7393,
  "\u2581\u0110i\u00ean": 7394,
  "\u2581\u4f60\u662f\u8aaa": 7395,
  "\u2581\u6240\u6709\u4eba": 7396,
  "\u2581\u975e\u5e38\u597d": 7397,
  "\u542c\u8fc7": 7398,
  "\u5806": 7399,
  "\u61c2\u5f97": 7400,
  "\u662f\u4e00\u500b": 7401,
  "\u6b64\u4e8b": 7402,
  "\u7687\u540e": 7403,
  "\u8a18\u5f97": 7404,
  "\u2581C\u01b0ng": 7405,
  "\u2581\u5e6b\u6211": 7406,
  "\u51a0\u519b": 7407,
  "\u534f\u8bae": 7408,
  "\u5be6": 7409,
  "\u60f3\u529e\u6cd5": 7410,
  "\u6232": 7411,
  "\u6709\u4e00": 7412,
  "\u6709\u95ee\u9898": 7413,
  "\u6761\u4ef6": 7414,
  "\u7d66\u6211\u5011": 7415,
  "\u99ac\u4e0a": 7416,
  "\u2581Ch\u0103": 7417,
  "\u2581Ph\u00e1t": 7418,
  "\u2581\u4f60\u4e0d\u60f3": 7419,
  "\u52e4": 7420,
  "\u5409\u7c73": 7421,
  "\u6e05\u9192": 7422,
  "\u706d": 7423,
  "\u70ba\u6211": 7424,
  "\u806f\u7e6b": 7425,
  "\u2581Th\u00edch": 7426,
  "\u2581T\u01b0\u1edfng": 7427,
  "\u2581v\u1edf": 7428,
  "\u2581\u5728\u8fd9": 7429,
  "\u4e00\u96bb": 7430,
  "\u4eba\u5011": 7431,
  "\u4f60\u53bb": 7432,
  "\u524d\u8fdb": 7433,
  "\u57cb": 7434,
  "\u591a\u5927": 7435,
  "\u6211\u6765": 7436,
  "\u627e\u4e86": 7437,
  "\u6307\u6325": 7438,
  "\u6682\u65f6": 7439,
  "\u7684\u610f\u601d": 7440,
  "\u8116\u5b50": 7441,
  "\u95ea": 7442,
  "con": 7443,
  "\u2581Johnny": 7444,
  "\u2581b\u1ec3": 7445,
  "\u2581c\u1ee5t": 7446,
  "\u2581\u5e15": 7447,
  "\u2581\u6211\u4eec\u8d70\u5427": 7448,
  "\u542c\u542c": 7449,
  "\u542f\u52a8": 7450,
  "\u6076\u5fc3": 7451,
  "\ue6d4\ue5ec": 7452,
  "\ue78f": 7453,
  "{": 7454,
  "\u258188": 7455,
  "\u2581Daniel": 7456,
  "\u2581Na": 7457,
  "\u2581William": 7458,
  "\u2581c\u1ed1ng": 7459,
  "\u2581ph\u1ed1i": 7460,
  "\u2581\u4f5c\u4e3a": 7461,
  "\u2581\u6211\u9084": 7462,
  "\u4e0d\u6e05": 7463,
  "\u53e6\u4e00\u500b": 7464,
  "\u547c\u53eb": 7465,
  "\u5730\u9762": 7466,
  "\u6240\u6709\u4eba\u90fd": 7467,
  "\u6e7f": 7468,
  "\u6ee1\u8db3": 7469,
  "\u7382": 7470,
  "\u7684\u5c31\u662f": 7471,
  "\u8282\u76ee": 7472,
  "\u8fc7\u7684": 7473,
  "\u2581Ph\u00eda": 7474,
  "\u2581V\u0103n": 7475,
  "\u2581l\u01b0\u1ee3c": 7476,
  "\u2581\u5982\u4f55": 7477,
  "\u2581\u90a3\u4ed6": 7478,
  "\u4f73": 7479,
  "\u5341\u4e8c": 7480,
  "\u53d8\u6001": 7481,
  "\u5931\u671b": 7482,
  "\u5e74\u4ee3": 7483,
  "\u6297": 7484,
  "\u7d08": 7485,
  "\u7ecf\u5386": 7486,
  "\u8d5e": 7487,
  "\u9019\u4e00\u5207": 7488,
  "\u968f\u65f6": 7489,
  "V\u00e2ng": 7490,
  "der": 7491,
  "op": 7492,
  "ty": 7493,
  "\u2581K\u1ec7": 7494,
  "\u2581b\u1eadc": 7495,
  "\u2581ch\u00edn": 7496,
  "\u2581\u4e0d\u9519": 7497,
  "\u2581\u5c31\u662f\u8fd9\u6837": 7498,
  "\u5728\u90a3\u5152": 7499,
  "\u5b9e\u9a8c\u5ba4": 7500,
  "\u6ca1\u6709\u4efb\u4f55": 7501,
  "\u90a3\u4f4d": 7502,
  "\u9a97": 7503,
  "\ue78f\ue61c": 7504,
  "\u2581T\u1ed9i": 7505,
  "\u2581b\u1ec7": 7506,
  "\u2581r\u1ed9n": 7507,
  "\u2581thu\u1ebf": 7508,
  "\u2581th\u00e0": 7509,
  "\u2581x\u1ebf": 7510,
  "\u4e0d\u6b62": 7511,
  "\u4e0d\u8d77": 7512,
  "\u4e54\u6cbb": 7513,
  "\u505a\u5f97": 7514,
  "\u653e\u5fc3": 7515,
  "\u8bb0\u5fc6": 7516,
  "one": 7517,
  "\u2581H\u1ec7": 7518,
  "\u2581X\u00e1c": 7519,
  "\u2581b\u1ed3n": 7520,
  "\u2581\u6211\u6c92\u4e8b": 7521,
  "\u2581\u6211\u89c9\u5f97\u4f60": 7522,
  "\u2581\u90a3\u662f\u6211": 7523,
  "\u5730\u533a": 7524,
  "\u904a\u6232": 7525,
  "\ue1d3": 7526,
  "l\u00e0": 7527,
  "\u258160": 7528,
  "\u2581m\u1ecdc": 7529,
  "\u2581ng\u01b0": 7530,
  "\u2581r\u00e0o": 7531,
  "\u2581t\u01b0\u01a1": 7532,
  "\u518d\u6765": 7533,
  "\u58f3": 7534,
  "\u5b50\u5f48": 7535,
  "\u5efa\u7b51": 7536,
  "\u6db2": 7537,
  "\u7684\u5fc3": 7538,
  "\u7d04\u7ff0": 7539,
  "\u8a8d\u8b58": 7540,
  "\u8d56": 7541,
  "\u9677\u5165": 7542,
  "\u2581Dean": 7543,
  "\u3122": 7544,
  "\u4fdd\u9669": 7545,
  "\u5b97": 7546,
  "\u5f88\u559c\u6b22": 7547,
  "\u7684\u7236\u4eb2": 7548,
  "\u8981\u505a": 7549,
  "\u8ddf\u8457": 7550,
  "\u9019\u4e8b": 7551,
  "\u97e6": 7552,
  "\ue715": 7553,
  "\u2581\u4f60\u770b\u5230": 7554,
  "\u4e34\u740c": 7555,
  "\u5006": 7556,
  "\u5f7b\u5e95": 7557,
  "\u5fb7\u56fd": 7558,
  "\u6765\u770b": 7559,
  "\u7d50\u675f": 7560,
  "Sao": 7561,
  "\u2581Bobby": 7562,
  "\u2581kh\u00fac": 7563,
  "\u2581m\u00f3ng": 7564,
  "\u2581v\u1ea3": 7565,
  "\u505a\u5230\u4e86": 7566,
  "\u5355\u72ec": 7567,
  "\u540a": 7568,
  "\u5916\u661f\u4eba": 7569,
  "\u5e9c": 7570,
  "\u73cd": 7571,
  "\u8b66\u5c40": 7572,
  "\u8c08\u8bdd": 7573,
  "\u258180": 7574,
  "\u2581bu": 7575,
  "\u2581kh\u1ea5u": 7576,
  "\u2581ng\u01b0ng": 7577,
  "\u2581s\u01b0\u1edbng": 7578,
  "\u2581\u4ed6\u5abd\u7684": 7579,
  "\u2581\u5973\u4eba": 7580,
  "\u4e00\u5343": 7581,
  "\u4ec0\u4e48\u5417": 7582,
  "\u5e03\u6717": 7583,
  "\u6f14\u5458": 7584,
  "\u740c\u8857": 7585,
  "\u7838": 7586,
  "\u8ba9\u5b83": 7587,
  "\u9858": 7588,
  "\u2581Jesus": 7589,
  "\u2581c\u1ea1n": 7590,
  "\u2581ngo\u00e1i": 7591,
  "\u2581nh\u00ec": 7592,
  "\u2581v\u1eafng": 7593,
  "\u2581\u5176\u4ed6": 7594,
  "\u2581\u597d\u6781\u4e86": 7595,
  "\u2581\u6211\u5011\u4e0d\u80fd": 7596,
  "\u2581\u8fd9\u662f\u4f60": 7597,
  "\u5091": 7598,
  "\u5348\u9910": 7599,
  "\u5de6\u53f3": 7600,
  "\u6211\u5bb6": 7601,
  "\u660f": 7602,
  "\u66f4\u52a0": 7603,
  "\u7684\u5bb6": 7604,
  "\u8fd8\u5f97": 7605,
  "per": 7606,
  "\u2581she": 7607,
  "\u2581vong": 7608,
  "\u2581\u0111i\u1ec3n": 7609,
  "\u2581\u5982\u679c\u4f60\u4e0d": 7610,
  "\u2581\u6211\u4e0d\u9700\u8981": 7611,
  "\u2581\u6bcf\u6b21": 7612,
  "\u2581\u7537\u4eba": 7613,
  "\u4e25": 7614,
  "\u5384": 7615,
  "\u53d8\u5316": 7616,
  "\u5e2e\u4ed6": 7617,
  "\u5e74\u8f7b\u4eba": 7618,
  "\u60f3\u8fc7": 7619,
  "\u6210\u5458": 7620,
  "\u660e\u661f": 7621,
  "\u751f\u6c23": 7622,
  "\u7559\u8a00": 7623,
  "\u90a3\u7a2e": 7624,
  "\u9a7e\u9a76": 7625,
  "\ue66f\ue215": 7626,
  "\u4e0a\u4f86": 7627,
  "\u4e2d\u95f4": 7628,
  "\u4e86\u4f60\u7684": 7629,
  "\u53ea\u9700\u8981": 7630,
  "\u540e\u6094": 7631,
  "\u627e\u4eba": 7632,
  "\u65e0\u804a": 7633,
  "\u6703\u6709": 7634,
  "\u6bc1\u706d": 7635,
  "\u7b54": 7636,
  "\u0427": 7637,
  "\u2581ho\u00e1": 7638,
  "\u2581nh\u1ecbp": 7639,
  "\u2581\u0111\u1ebfch": 7640,
  "\u2581\u53ea\u80fd": 7641,
  "\u2581\u6211\u4fdd\u8b49": 7642,
  "\u2581\u6211\u8bf4\u4e86": 7643,
  "\u2581\u662f\u771f\u7684": 7644,
  "\u2581\u9019\u6b21": 7645,
  "\u4e0a\u8f66": 7646,
  "\u56e2\u961f": 7647,
  "\u5c31\u4e0d\u6703": 7648,
  "\u6211\u559c\u6b22": 7649,
  "\u653e\u677e": 7650,
  "\u8033\u6735": 7651,
  "\u80cc\u540e": 7652,
  "\u88e1\u9762": 7653,
  "\u8b66\u63a2": 7654,
  "\u8d70\u5230": 7655,
  "\u2581Ethan": 7656,
  "\u2581b\u00e3": 7657,
  "\u2581c\u00e0i": 7658,
  "\u2581h\u00e0": 7659,
  "\u2581h\u1ecdng": 7660,
  "\u2581ph\u1ea5n": 7661,
  "\u2581\u4e0a\u6821": 7662,
  "\u2581\u4e3a\u4f55": 7663,
  "\u2581\u6211\u4e0d\u5728\u4e4e": 7664,
  "\u2581\u6211\u624d\u4e0d": 7665,
  "\u2581\u63a5\u4e0b\u6765": 7666,
  "\u4e0d\u65ad": 7667,
  "\u4ec0\u4e48\u610f\u601d": 7668,
  "\u5f88\u5feb\u5c31": 7669,
  "\u5fc5\u8981": 7670,
  "\u611f\u67d3": 7671,
  "\u6211\u5f88": 7672,
  "\u627e\u5230\u7684": 7673,
  "\u6570\u5b57": 7674,
  "\u7ec6": 7675,
  "\u810f": 7676,
  "\u8e0f": 7677,
  "\u8fc7\u53bb\u4e86": 7678,
  "\u900a": 7679,
  "\u2581nh\u1eb7t": 7680,
  "\u2581vang": 7681,
  "\u2581\u5409": 7682,
  "\u2581\u6211\u4ee5\u70ba": 7683,
  "\u2581\u665a\u4e0a\u597d": 7684,
  "\u2581\u6c38\u8fdc": 7685,
  "\u2581\u73ed": 7686,
  "\u4e0d\u8212\u670d": 7687,
  "\u5b9e\u9a8c": 7688,
  "\u661f\u671f": 7689,
  "\u6709\u8fc7": 7690,
  "\u6f14\u51fa": 7691,
  "\u2581n\u1ecd": 7692,
  "\u2581\u4ed6\u4e5f": 7693,
  "\u2581\u5df2": 7694,
  "\u2581\u6628\u5929": 7695,
  "\u2581\u8fd9\u5c31\u662f\u6211": 7696,
  "\u4e2d\u60c5\u5c40": 7697,
  "\u53eb\u4ec0\u4e48": 7698,
  "\u54b1\u5011": 7699,
  "\u5a29": 7700,
  "\u5e72\u4e86": 7701,
  "\u6211\u5df2\u7ecf": 7702,
  "\u6bd5\u4e1a": 7703,
  "\u6d31": 7704,
  "\u786e\u4fdd": 7705,
  "\u8986": 7706,
  "\u8fd4\u56de": 7707,
  "\ue66a": 7708,
  "\u2581M\u00e1u": 7709,
  "\u2581\u4f60\u88ab": 7710,
  "\u2581\u970d": 7711,
  "\u4e24\u6b21": 7712,
  "\u505a\u4e86\u4ec0\u9ebc": 7713,
  "\u525b\u525b": 7714,
  "\u67d0\u79cd": 7715,
  "\u8d76\u5feb": 7716,
  "\u906d": 7717,
  "\u2581U": 7718,
  "\u2581\u5982\u679c\u4ed6\u4eec": 7719,
  "\u4f9d\u7136": 7720,
  "\u500b\u4eba": 7721,
  "\u514b\u96f7": 7722,
  "\u51c6\u5907\u597d\u4e86": 7723,
  "\u5b8c\u6210\u4e86": 7724,
  "\u5e0c\u671b\u4f60": 7725,
  "\u5e74\u7684": 7726,
  "\u5f53\u6211": 7727,
  "\u5f97\u597d": 7728,
  "\u627e\u5230\u5979": 7729,
  "\u6363": 7730,
  "\u66fe\u7d93": 7731,
  "\u8111\u5b50": 7732,
  "\u9ec4\u91d1": 7733,
  "\ue0bc": 7734,
  "\u2581d\u1eaft": 7735,
  "\u2581t\u1ecfa": 7736,
  "\u2581\u4f60\u5df2\u7d93": 7737,
  "\u4e58": 7738,
  "\u5171\u540c": 7739,
  "\u53d7\u5bb3\u8005": 7740,
  "\u5f88\u5fd9": 7741,
  "\u64ad": 7742,
  "\u6b63\u786e": 7743,
  "\u742a": 7744,
  "\u7ed9\u4f60\u7684": 7745,
  "\u8bd5\u7740": 7746,
  "\u8bf4\u670d": 7747,
  "\u8fd9\u4e00": 7748,
  "\u8fd9\u6761": 7749,
  "\u90a3\u5bb6\u4f19": 7750,
  "\u2581H\u00f4n": 7751,
  "\u2581S\u1edf": 7752,
  "\u2581\u4ee5\u540e": 7753,
  "\u2581\u6709\u65f6": 7754,
  "\u5c0f\u7ec4": 7755,
  "\u5f97\u5148": 7756,
  "\u610f\u4e49": 7757,
  "\u610f\u7fa9": 7758,
  "\u6253\u6270": 7759,
  "\u628a\u8fd9\u4e2a": 7760,
  "\u8bc6": 7761,
  "\u8fdb\u4e86": 7762,
  "\ue794": 7763,
  "\u2581King": 7764,
  "\u2581time": 7765,
  "\u2581ti\u1ec5n": 7766,
  "\u2581\u4f60\u53ef\u80fd": 7767,
  "\u2581\u6309": 7768,
  "\u2581\u9ea6": 7769,
  "\u50f9": 7770,
  "\u5224": 7771,
  "\u53ef\u6015": 7772,
  "\u54ea\u4e2a": 7773,
  "\u5e3d": 7774,
  "\u627e\u4ed6": 7775,
  "\u6324": 7776,
  "\u638c\u63e1": 7777,
  "\u680b": 7778,
  "\u7261": 7779,
  "\u7f8e\u597d": 7780,
  "\u829d\u52a0\u54e5": 7781,
  "\u2581Potter": 7782,
  "\u2581\u4f60\u4e0d\u7528": 7783,
  "\u2581\u6234": 7784,
  "\u2581\u6240\u6709\u4eba\u90fd": 7785,
  "\u2581\u6b61\u8fce": 7786,
  "\u5168\u662f": 7787,
  "\u5fcd": 7788,
  "\u60e0": 7789,
  "\u610f\u5473\u7740": 7790,
  "\u7092": 7791,
  "\u7236\u89aa": 7792,
  "\u73b0\u5b9e": 7793,
  "\u80a1": 7794,
  "\u80fd\u91cf": 7795,
  "\u8d25": 7796,
  "ba": 7797,
  "\u2581c\u00f2": 7798,
  "\u2581c\u1ea1o": 7799,
  "\u2581c\u1ef1": 7800,
  "\u2581robot": 7801,
  "\u2581su": 7802,
  "\u4e00\u8f88\u5b50": 7803,
  "\u4e0d\u6210": 7804,
  "\u4f55\u65f6": 7805,
  "\u52a1": 7806,
  "\u5f88\u5c11": 7807,
  "\u641c\u7d22": 7808,
  "\u6c61": 7809,
  "\u6c92\u4ec0\u9ebc": 7810,
  "\u719f\u6089": 7811,
  "\u7a7a\u95f4": 7812,
  "\u8868\u73b0": 7813,
  "\u2581b\u00f3": 7814,
  "\u2581chu": 7815,
  "\u2581qu\u1ef3": 7816,
  "\u2581r\u1ea3nh": 7817,
  "\u2581\u4ec0\u4e48\u65f6\u5019": 7818,
  "\u2581\u4ed6\u4eec\u90fd": 7819,
  "\u2581\u6211\u597d": 7820,
  "\u2581\u6211\u77e5\u9053\u6211": 7821,
  "\u2581\u653e\u5f00\u6211": 7822,
  "\u2581\u6559\u6388": 7823,
  "\u4f60\u7684\u624b": 7824,
  "\u4fd7": 7825,
  "\u589e": 7826,
  "\u5934\u4e0a": 7827,
  "\u597d\u591a\u4e86": 7828,
  "\u6307\u6325\u5b98": 7829,
  "\u64a4\u9000": 7830,
  "\u8d70\u7684": 7831,
  "ber": 7832,
  "\u2581G\u1eedi": 7833,
  "\u2581How": 7834,
  "\u2581\u4e5f\u8bb8\u6211": 7835,
  "\u2581\u4ed6\u4e0d": 7836,
  "\u2581\u537b": 7837,
  "\u2581\u656c": 7838,
  "\u4e7e": 7839,
  "\u4ea7\u751f": 7840,
  "\u53d1\u751f\u4e86\u4ec0\u4e48": 7841,
  "\u542c\u8bf4\u8fc7": 7842,
  "\u5c0f\u5077": 7843,
  "\u623f\u9593": 7844,
  "\u804a\u5929": 7845,
  "\u897f\u73ed\u7259": 7846,
  "\u9171": 7847,
  "\u987e": 7848,
  "500": 7849,
  "C\u1eadu": 7850,
  "\u2581Eric": 7851,
  "\u2581bu\u00f4ng": 7852,
  "\u2581b\u1ecd": 7853,
  "\u2581\u4eca\u5929\u662f": 7854,
  "\u2581\u53ef\u662f\u6211": 7855,
  "\u2581\u56de\u53bb": 7856,
  "\u2581\u5b89\u5a1c": 7857,
  "\u2581\u6211\u60f3\u77e5\u9053": 7858,
  "\u2581\u6211\u624d": 7859,
  "\u2581\u6211\u7238\u7238": 7860,
  "\u2581\u653e\u677e": 7861,
  "\u4e00\u8d9f": 7862,
  "\u898b\u9762": 7863,
  "\u8ba8": 7864,
  "\u8eab\u908a": 7865,
  "\u2581Nh\u1edd": 7866,
  "\u2581c\u01b0\u1ee1ng": 7867,
  "\u2581\u3043": 7868,
  "\u2581\u4f60\u4e3a\u4ec0\u4e48\u4e0d": 7869,
  "\u2581\u5c0d\u55ce": 7870,
  "\u4e09\u5e74": 7871,
  "\u536b\u661f": 7872,
  "\u53db\u5f92": 7873,
  "\u53ef\u7231": 7874,
  "\u540d\u5355": 7875,
  "\u5947\u8ff9": 7876,
  "\u597d\u5947": 7877,
  "\u5996": 7878,
  "\u7ed1\u67b6": 7879,
  "\u8247": 7880,
  "\u8b93\u4eba": 7881,
  "\u8bbe\u5907": 7882,
  "\u9003\u8d70": 7883,
  "\u2581Be": 7884,
  "\u2581H\u00e0n": 7885,
  "\u2581tho\u1ea3": 7886,
  "\u2581\u4e39\u5c3c": 7887,
  "\u2581\u5979\u8bf4": 7888,
  "\u2581\u6211\u7238": 7889,
  "\u52ab": 7890,
  "\u54e9": 7891,
  "\u56de\u5bb6\u5427": 7892,
  "\u590d\u6742": 7893,
  "\u5949": 7894,
  "\u5e74\u4e86": 7895,
  "\u5e74\u8f15": 7896,
  "\u6e90": 7897,
  "\u7fa9": 7898,
  "\u903c\u6211": 7899,
  "\u963b": 7900,
  "\u9810": 7901,
  "\u2581Bay": 7902,
  "\u2581C\u00e0": 7903,
  "\u2581Nh\u00f3c": 7904,
  "\u2581\u5f88\u5feb": 7905,
  "\u2581\u628a\u5979": 7906,
  "\u4f1a\u8ba9\u4f60": 7907,
  "\u4f60\u548c": 7908,
  "\u5168\u7403": 7909,
  "\u51f6\u624b": 7910,
  "\u5404\u79cd": 7911,
  "\u5df1": 7912,
  "\u5fc3\u60c5": 7913,
  "\u6574\u5929": 7914,
  "\u65c5\u9986": 7915,
  "\u760b": 7916,
  "\u7a81": 7917,
  "\u7c97": 7918,
  "\ue611": 7919,
  "\u2581C\u1ee5c": 7920,
  "\u2581Th\u00fa": 7921,
  "\u2581kho\u00e1i": 7922,
  "\u2581l\u1ecfng": 7923,
  "\u2581\u5e72\u5f97\u597d": 7924,
  "\u2581\u6211\u5011\u5c31": 7925,
  "\u2581\u633a": 7926,
  "\u2581\u8d70\u5f00": 7927,
  "\u4f60\u5e94\u8be5": 7928,
  "\u53bb\u90a3\u91cc": 7929,
  "\u5929\u6c14": 7930,
  "\u5976\u5976": 7931,
  "\u5c0f\u4e11": 7932,
  "\u5e76\u975e": 7933,
  "\u5f88\u60f3": 7934,
  "\u6559\u80b2": 7935,
  "\u6570\u636e": 7936,
  "\u7279\u6b8a": 7937,
  "\u734e": 7938,
  "\u89c0": 7939,
  "\u2581ph\u00f4": 7940,
  "\u2581\u0111o\u1ea1t": 7941,
  "\u2581\u54e5\u4eec": 7942,
  "\u2581\u8fd9\u662f\u4f60\u7684": 7943,
  "\u53ef\u771f": 7944,
  "\u5f88\u591a\u4eba": 7945,
  "\u6e34\u671b": 7946,
  "\u7684\u76ee\u7684": 7947,
  "\u80ce": 7948,
  "\u80fd\u5426": 7949,
  "\u885d": 7950,
  "\u2581Chicago": 7951,
  "\u2581L\u00e3nh": 7952,
  "\u2581b\u1eafp": 7953,
  "\u2581from": 7954,
  "\u2581th\u1eaft": 7955,
  "\u2581u": 7956,
  "\u2581\u4f60\u4e3a\u4ec0\u4e48\u8981": 7957,
  "\u2581\u5982": 7958,
  "\u2581\u5c31\u80fd": 7959,
  "\u2581\u6211\u542c\u8bf4": 7960,
  "\u2581\u6211\u76f8\u4fe1\u4f60": 7961,
  "\u5de8\u4eba": 7962,
  "\u628a\u6211\u5011": 7963,
  "\u760b\u72c2": 7964,
  "\u8dcc": 7965,
  "\u9053\u7406": 7966,
  "\ue7df": 7967,
  "\u2581r\u01b0\u1edfi": 7968,
  "\u2581tr\u1eadt": 7969,
  "\u2581x\u00e0": 7970,
  "\u2581\u4e24\u4e2a": 7971,
  "\u2581\u91cc\u9762": 7972,
  "\u4efb\u4f55\u4e8b": 7973,
  "\u5362": 7974,
  "\u5382": 7975,
  "\u5f8b\u5e2b": 7976,
  "\u6709\u7a7a": 7977,
  "\u7684\u4fe1\u606f": 7978,
  "\u2581Mong": 7979,
  "\u2581ch\u00f3c": 7980,
  "\u2581lo\u1ea1t": 7981,
  "\u2581n\u1ed7": 7982,
  "\u2581tia": 7983,
  "\u2581\u4f60\u8aaa\u4ec0\u9ebc": 7984,
  "\u2581\u67e5": 7985,
  "\u4ec0\u4e48\u5462": 7986,
  "\u4fc4": 7987,
  "\u52c3": 7988,
  "\u5c31\u662f\u4e2a": 7989,
  "\u6bcf\u5929\u90fd": 7990,
  "\u7b2c\u4e00\u4e2a": 7991,
  "\u8be5\u6b7b": 7992,
  "\u8f6f": 7993,
  "ak": 7994,
  "\u2581m\u1edd": 7995,
  "\u2581\u63a5\u7740": 7996,
  "\u590f\u5929": 7997,
  "\u5927\u4e8b": 7998,
  "\u5eab": 7999,
  "\u63a9\u62a4": 8000,
  "\u6602": 8001,
  "\u7684\u4e00\u4e2a": 8002,
  "\u8fd9\u70b9": 8003,
  "\u9ed1\u9b3c": 8004,
  "\u2581Brian": 8005,
  "\u2581Bu\u00f4ng": 8006,
  "\u2581M\u1eebng": 8007,
  "\u2581nh\u1ea1y": 8008,
  "\u2581\u00c1o": 8009,
  "\u2581\u0111\u00e1o": 8010,
  "\u2581\u585e": 8011,
  "\u2581\u62ff\u7740": 8012,
  "\u4e00\u665a": 8013,
  "\u4e5f\u5728": 8014,
  "\u4e89": 8015,
  "\u5357\u65b9": 8016,
  "\u5386": 8017,
  "\u5e8a\u4e0a": 8018,
  "\u62ff\u4e0b": 8019,
  "\u65f6\u523b": 8020,
  "\u6731": 8021,
  "\u6cca": 8022,
  "\u898b\u5230\u4f60": 8023,
  "\u8bf4\u5f97\u5bf9": 8024,
  "\u975e\u6d32": 8025,
  "\u9802": 8026,
  "\ue6bf": 8027,
  "\u2581ki\u1ec7t": 8028,
  "\u2581\u4f60\u559c\u6b61": 8029,
  "\u4eba\u8d28": 8030,
  "\u5b89\u5168\u4e86": 8031,
  "\u5fc3\u7406": 8032,
  "\u626d": 8033,
  "\u6700\u5f8c": 8034,
  "\u6709\u4efb\u4f55": 8035,
  "\u67d0\u4e9b": 8036,
  "\u68c0": 8037,
  "\u78ba\u5be6": 8038,
  "\u86ee": 8039,
  "\u8861": 8040,
  "\u91ab\u9662": 8041,
  "18\\": 8042,
  "huy\u1ebfn": 8043,
  "\u2581B\u00f3ng": 8044,
  "\u2581Ph\u01b0\u01a1ng": 8045,
  "\u2581b\u1ec1": 8046,
  "\u2581c\u1eebu": 8047,
  "\u2581d\u00e3y": 8048,
  "\u2581r\u1ed7ng": 8049,
  "\u2581\u4ed6\u53ea\u662f": 8050,
  "\u2581\u5c3c\u514b": 8051,
  "\u2581\u6240\u4ee5\u4ed6": 8052,
  "\u4e0d\u591a": 8053,
  "\u51ed": 8054,
  "\u59b3\u7684": 8055,
  "\u5de5\u4f5c\u4e86": 8056,
  "\u5e86\u795d": 8057,
  "\u73ca": 8058,
  "\u7684\u6a23\u5b50": 8059,
  "\u7b46": 8060,
  "\ue6b6": 8061,
  "\u2581C\u00e2y": 8062,
  "\u2581\u6211\u4e5f\u60f3": 8063,
  "\u4e0b\u6b21": 8064,
  "\u544a\u8bc9\u4ed6\u4eec": 8065,
  "\u5a05": 8066,
  "\u5bf9\u4e0d\u5bf9": 8067,
  "\u5c31\u8d70": 8068,
  "\u5efa\u8b70": 8069,
  "\u5f97\u5f88\u597d": 8070,
  "\u624b\u4e2d": 8071,
  "\u716e": 8072,
  "\u795e\u7236": 8073,
  "\u96a7\u9053": 8074,
  "\u96de": 8075,
  "\u1ee1": 8076,
  "\u2581gi\u1eb7t": 8077,
  "\u2581\u4f60\u5728\u505a\u4ec0\u4e48": 8078,
  "\u2581\u5f17\u5170\u514b": 8079,
  "\u2581\u5feb\u6765": 8080,
  "\u2581\u6c92\u4ec0\u9ebc": 8081,
  "\u2581\u7167": 8082,
  "\u2581\ue0f8": 8083,
  "\u5728\u505a\u4ec0\u4e48": 8084,
  "\u5931\u8e2a": 8085,
  "\u5a01\u8105": 8086,
  "\u5c11\u6821": 8087,
  "\u5c16\u53eb": 8088,
  "\u5f03": 8089,
  "\u6211\u5152\u5b50": 8090,
  "\u6355": 8091,
  "\u64c1\u6709": 8092,
  "\u6ee1\u610f": 8093,
  "\u751a\u9ebc": 8094,
  "\u7a7a\u6c14": 8095,
  "\u88ab\u4f60": 8096,
  "\u8bf4\u7684\u662f": 8097,
  "\u90e8\u95e8": 8098,
  "\ue00a": 8099,
  "1\\3": 8100,
  "\u2581Come": 8101,
  "\u2581his": 8102,
  "\u2581li": 8103,
  "\u5929\u54ea": 8104,
  "\u60a3": 8105,
  "\u60f3\u8981\u7684": 8106,
  "\u6211\u5011\u6703": 8107,
  "\u73b0\u91d1": 8108,
  "\u78bc": 8109,
  "\u7b49\u4e86": 8110,
  "\u8ac7\u8ac7": 8111,
  "\u2581Ch\u1eebng": 8112,
  "\u2581Luke": 8113,
  "\u2581ch\u00e9n": 8114,
  "\u2581could": 8115,
  "\u2581tr\u1eef": 8116,
  "\u2581\u4f60\u597d\u554a": 8117,
  "\u2581\u56e0\u4e3a\u6211\u4eec": 8118,
  "\u2581\u8df3": 8119,
  "\u4e0b\u624b": 8120,
  "\u505a\u904e": 8121,
  "\u5269": 8122,
  "\u56ca": 8123,
  "\u62b1\u6028": 8124,
  "\u800c\u6b7b": 8125,
  "\u8865": 8126,
  "\u8cb4": 8127,
  "\u8d34": 8128,
  "\u8fd9\u4e48\u60f3": 8129,
  "\u9999\u6e2f": 8130,
  "\ue056": 8131,
  "#7889;": 8132,
  "\u2581nu\u1ed1t": 8133,
  "\u2581s\u1edd": 8134,
  "\u2581x\u1ed9n": 8135,
  "\u2581\u4e54\u6cbb": 8136,
  "\u54c8\u91cc": 8137,
  "\u5abd": 8138,
  "\u5c31\u77e5\u9053": 8139,
  "\u5e7b\u60f3": 8140,
  "\u7684\u7406\u7531": 8141,
  "\u770b\u7740\u6211": 8142,
  "\u88e4\u5b50": 8143,
  "ster": 8144,
  "\u2581C\u1edfi": 8145,
  "\u2581Th\u1ecb": 8146,
  "\u2581l\u01b0\u1edbi": 8147,
  "\u2581qu\u1ea5y": 8148,
  "\u2581x\u00e1": 8149,
  "\u2581\u01a0": 8150,
  "\u2581\u4f60\u662f\u5728": 8151,
  "\u2581\u4f60\u770b\u8d77\u6765": 8152,
  "\u2581\u5f88\u9ad8\u5174": 8153,
  "\u2581\u6211\u4ece": 8154,
  "\u2581\u6ca1\u4e8b\u4e86": 8155,
  "\u2581\u90a3\u662f\u6211\u7684": 8156,
  "\u4e00\u5927": 8157,
  "\u4e0d\u4fe1": 8158,
  "\u505c\u4e0b\u6765": 8159,
  "\u5408\u6cd5": 8160,
  "\u548c\u6211\u4e00\u8d77": 8161,
  "\u56da\u72af": 8162,
  "\u56f4": 8163,
  "\u6bd9": 8164,
  "\u7a7f\u4e0a": 8165,
  "\u831c": 8166,
  "\u8a5e": 8167,
  "\u90a3\u53ea": 8168,
  "\u95ee\u95ee": 8169,
  "Xin": 8170,
  "\u2581C\u1eaft": 8171,
  "\u2581Th\u1ecf": 8172,
  "\u2581\u4e0d\u662f\u5427": 8173,
  "\u2581\u4ed6\u4eec\u8981": 8174,
  "\u2581\u8bf7\u95ee": 8175,
  "\u3071": 8176,
  "\u4fbf\u5b9c": 8177,
  "\u56de\u53bb\u4e86": 8178,
  "\u5bab": 8179,
  "\u773c\u524d": 8180,
  "\u8001\u5e2b": 8181,
  "\u88d9\u5b50": 8182,
  "\u9ad8\u8208": 8183,
  "\ue5f9": 8184,
  "\u2581L\u00ednh": 8185,
  "\u2581m\u1ed5": 8186,
  "\u2581n\u1ed1t": 8187,
  "\u2581\u514b\u91cc\u65af": 8188,
  "\u2581\u5929\u5450": 8189,
  "\u2581\u6293\u4f4f": 8190,
  "\u2581\u7435": 8191,
  "\u2581\u795d": 8192,
  "\u2581\u81ea": 8193,
  "\u2581\u8b66\u5b98": 8194,
  "\u2581\u8d77\u4f86": 8195,
  "\u54e5\u4eec": 8196,
  "\u5728\u610f": 8197,
  "\u62a2\u52ab": 8198,
  "\u6ca1\u89c1\u8fc7": 8199,
  "\u6f6e": 8200,
  "\u7a0d": 8201,
  "\u7b80": 8202,
  "\u8fc8": 8203,
  "#7845;": 8204,
  "\u2581Da": 8205,
  "\u2581c\u1ea3ng": 8206,
  "\u2581\u0110\u1ed9ng": 8207,
  "\u2581\u4ed6\u77e5\u9053": 8208,
  "\u2581\u6211\u518d": 8209,
  "\u2581\u6d3e": 8210,
  "\u4e86\u4ed6\u7684": 8211,
  "\u4ebf": 8212,
  "\u5339": 8213,
  "\u5c31\u662f\u4f60": 8214,
  "\u5f15\u8d77": 8215,
  "\u5f88\u7f8e": 8216,
  "\u73a9\u610f": 8217,
  "\u7cfb\u7d71": 8218,
  "\u7ec8": 8219,
  "\u8ba9\u4f60\u4eec": 8220,
  "\u8fd9\u573a": 8221,
  "\u8fdb\u653b": 8222,
  "\ue7cf\ue5ec": 8223,
  "\u258184": 8224,
  "\u2581our": 8225,
  "\u2581\u5149": 8226,
  "\u2581\u662f\u5440": 8227,
  "\u2581\u6c92\u6709\u4eba": 8228,
  "\u4e0d\u4e45": 8229,
  "\u4e73": 8230,
  "\u53bb\u54ea\u513f": 8231,
  "\u5706": 8232,
  "\u6211\u77e5\u9053\u4f60": 8233,
  "\u6247": 8234,
  "\u626c": 8235,
  "\u6536\u96c6": 8236,
  "\u70b9\u513f": 8237,
  "\u2581l\u01b0": 8238,
  "\u2581m\u1ef1c": 8239,
  "\u2581\u6b63\u662f": 8240,
  "\u2581\u7236\u4eb2": 8241,
  "\u2581\u9000\u540e": 8242,
  "\u4e0d\u8981\u518d": 8243,
  "\u53f8": 8244,
  "\u5403\u98ef": 8245,
  "\u5e38\u740c": 8246,
  "\u5f53\u4f60": 8247,
  "\u5f8b": 8248,
  "\u6c92\u6cd5": 8249,
  "\u90a3\u4e2a\u4eba": 8250,
  "\u95f4\u8c0d": 8251,
[...]
